node {
  name: "lstm_1_input"
  op: "Placeholder"
  attr {
    key: "dtype"
    value {
      type: DT_FLOAT
    }
  }
  attr {
    key: "shape"
    value {
      shape {
        dim {
          size: -1
        }
        dim {
          size: 100
        }
        dim {
          size: 9
        }
      }
    }
  }
}
node {
  name: "lstm_1/random_uniform/shape"
  op: "Const"
  attr {
    key: "dtype"
    value {
      type: DT_INT32
    }
  }
  attr {
    key: "value"
    value {
      tensor {
        dtype: DT_INT32
        tensor_shape {
          dim {
            size: 2
          }
        }
        tensor_content: "\t\000\000\000\200\000\000\000"
      }
    }
  }
}
node {
  name: "lstm_1/random_uniform/min"
  op: "Const"
  attr {
    key: "dtype"
    value {
      type: DT_FLOAT
    }
  }
  attr {
    key: "value"
    value {
      tensor {
        dtype: DT_FLOAT
        tensor_shape {
        }
        float_val: -0.20927404
      }
    }
  }
}
node {
  name: "lstm_1/random_uniform/max"
  op: "Const"
  attr {
    key: "dtype"
    value {
      type: DT_FLOAT
    }
  }
  attr {
    key: "value"
    value {
      tensor {
        dtype: DT_FLOAT
        tensor_shape {
        }
        float_val: 0.20927404
      }
    }
  }
}
node {
  name: "lstm_1/random_uniform/RandomUniform"
  op: "RandomUniform"
  input: "lstm_1/random_uniform/shape"
  attr {
    key: "T"
    value {
      type: DT_INT32
    }
  }
  attr {
    key: "dtype"
    value {
      type: DT_FLOAT
    }
  }
  attr {
    key: "seed"
    value {
      i: 87654321
    }
  }
  attr {
    key: "seed2"
    value {
      i: 1018299
    }
  }
}
node {
  name: "lstm_1/random_uniform/sub"
  op: "Sub"
  input: "lstm_1/random_uniform/max"
  input: "lstm_1/random_uniform/min"
  attr {
    key: "T"
    value {
      type: DT_FLOAT
    }
  }
}
node {
  name: "lstm_1/random_uniform/mul"
  op: "Mul"
  input: "lstm_1/random_uniform/RandomUniform"
  input: "lstm_1/random_uniform/sub"
  attr {
    key: "T"
    value {
      type: DT_FLOAT
    }
  }
}
node {
  name: "lstm_1/random_uniform"
  op: "Add"
  input: "lstm_1/random_uniform/mul"
  input: "lstm_1/random_uniform/min"
  attr {
    key: "T"
    value {
      type: DT_FLOAT
    }
  }
}
node {
  name: "lstm_1/kernel"
  op: "VariableV2"
  attr {
    key: "container"
    value {
      s: ""
    }
  }
  attr {
    key: "dtype"
    value {
      type: DT_FLOAT
    }
  }
  attr {
    key: "shape"
    value {
      shape {
        dim {
          size: 9
        }
        dim {
          size: 128
        }
      }
    }
  }
  attr {
    key: "shared_name"
    value {
      s: ""
    }
  }
}
node {
  name: "lstm_1/kernel/Assign"
  op: "Assign"
  input: "lstm_1/kernel"
  input: "lstm_1/random_uniform"
  attr {
    key: "T"
    value {
      type: DT_FLOAT
    }
  }
  attr {
    key: "_class"
    value {
      list {
        s: "loc:@lstm_1/kernel"
      }
    }
  }
  attr {
    key: "use_locking"
    value {
      b: true
    }
  }
  attr {
    key: "validate_shape"
    value {
      b: true
    }
  }
}
node {
  name: "lstm_1/kernel/read"
  op: "Identity"
  input: "lstm_1/kernel"
  attr {
    key: "T"
    value {
      type: DT_FLOAT
    }
  }
  attr {
    key: "_class"
    value {
      list {
        s: "loc:@lstm_1/kernel"
      }
    }
  }
}
node {
  name: "lstm_1/weight_regularizer/Square"
  op: "Square"
  input: "lstm_1/kernel/read"
  attr {
    key: "T"
    value {
      type: DT_FLOAT
    }
  }
}
node {
  name: "lstm_1/weight_regularizer/mul/x"
  op: "Const"
  attr {
    key: "dtype"
    value {
      type: DT_FLOAT
    }
  }
  attr {
    key: "value"
    value {
      tensor {
        dtype: DT_FLOAT
        tensor_shape {
        }
        float_val: 1e-06
      }
    }
  }
}
node {
  name: "lstm_1/weight_regularizer/mul"
  op: "Mul"
  input: "lstm_1/weight_regularizer/mul/x"
  input: "lstm_1/weight_regularizer/Square"
  attr {
    key: "T"
    value {
      type: DT_FLOAT
    }
  }
}
node {
  name: "lstm_1/weight_regularizer/Const"
  op: "Const"
  attr {
    key: "dtype"
    value {
      type: DT_INT32
    }
  }
  attr {
    key: "value"
    value {
      tensor {
        dtype: DT_INT32
        tensor_shape {
          dim {
            size: 2
          }
        }
        tensor_content: "\000\000\000\000\001\000\000\000"
      }
    }
  }
}
node {
  name: "lstm_1/weight_regularizer/Sum"
  op: "Sum"
  input: "lstm_1/weight_regularizer/mul"
  input: "lstm_1/weight_regularizer/Const"
  attr {
    key: "T"
    value {
      type: DT_FLOAT
    }
  }
  attr {
    key: "Tidx"
    value {
      type: DT_INT32
    }
  }
  attr {
    key: "keep_dims"
    value {
      b: false
    }
  }
}
node {
  name: "lstm_1/weight_regularizer/add/x"
  op: "Const"
  attr {
    key: "dtype"
    value {
      type: DT_FLOAT
    }
  }
  attr {
    key: "value"
    value {
      tensor {
        dtype: DT_FLOAT
        tensor_shape {
        }
        float_val: 0.0
      }
    }
  }
}
node {
  name: "lstm_1/weight_regularizer/add"
  op: "Add"
  input: "lstm_1/weight_regularizer/add/x"
  input: "lstm_1/weight_regularizer/Sum"
  attr {
    key: "T"
    value {
      type: DT_FLOAT
    }
  }
}
node {
  name: "lstm_1/recurrent_kernel/initial_value"
  op: "Const"
  attr {
    key: "dtype"
    value {
      type: DT_FLOAT
    }
  }
  attr {
    key: "value"
    value {
      tensor {
        dtype: DT_FLOAT
        tensor_shape {
          dim {
            size: 32
          }
          dim {
            size: 128
          }
        }
        tensor_content: "\3440\367\275\034\335\273\275l\253C\275\237\351{=\356Gw=m\332\265\275\251\331\010\276\032\271\023\275\277\004\\<\337\240\024>\232\322\003<O\302}=\337\234\323\275p\206\324=%\370\373;\300,U=\227\344u=\320\324\177\275\315\021\230;\370\254\"\276\345\306M>\365\344\007;\034\317\351\275\277\331\254\275\232b\230=4Z\310<wo?\275\361\235*=\310\217\\>#gC>!\310!=N\305\325=C\351\004<\007ZY=\331\365\351<\205\255\366;\376\2742=\341\235\336\275\367=\224\273\n3\326=a1\257\275\006\333\033\275\300\243\">X\317@>\272T\360:n\006\261<\327\3471\274c\227\330=\r\017\r<\031b3=\331\315\260\274x\345\373\275^\303\245\275\250\231\343=g\240\004= Q>=F\372\003\275DB\236<\\\023\345==\355f=g\027\316=\022\217f\275\312 \007\276+\277\007\274\363\363\305\275\342\234\216=\236\272\375\274\361\300\203=\354\r\341\274\222\357\247<f\303A<\342\364Z>\204\013\014\276\220\177\351\275\357\003\226\272t\254\277\275i~.=\314\321/\275\331\325\367\275+5\006\275#\232-\276K\347\221\275\177\257\260=ox\214\274[\2231=\337\253\212\274\215\231\325<iP3<\n\036\247\274\r\302\n\275%5m=\312\364\204\274\356\364!>\023\257Q>\236K\217=\226\353\030<\347\215P\275\030\014`\275\331\3238<#\343\227\275\365\3002>;\336\260=G\332\273=\260\303\033\276\322\307!\276\252\263\207\275\010\177}=\225\351\367\274\340\025\344\275\334\307S\273\232\000\301=Kc\346=\212\010\324\275\216\276\355=\311bT=\363\024\027=\2546\267</,\273\275\231\240M=#\022\317;\200\320\214=44\333\275\325!&\273\300\013\330\275\240M\277\275T\340\215\2752\203x\273\321c\t>\347\275\232<\177G\265<B\016V\275d\373\363<\025_\032=\004\377\244\275z\254?\276\344(\366;V\007\317\274\371T\210=\2001\002\2767\3504\275}1+\274\334dA>\2562q\276\001\324!\276\261\260\201\275!`V\274\250;J\275pZ\237\275\2323l\275W\323\333=\211\025\273=\200>\317=\271\226\363=\315\254\033\275\037\002(\276\2079E=\002\301f>\016\205.\276\351`0\275y\267\204\275H\303\312<T\305\225\275\232\3652\276\372\356\233\275\036\322\t=\317\t1;\233\274\253=U\333\243=\305(\307<\315T\254=\"\250r=\241\272\017\275\271\207\313\274\317\272\033\276V\022\n\275\320^\311\274\356y6\275%\373\007\275X2\373=\036cN\274;m\305\273.\215\247=\036{\316=_\323\231\2757\267\200\274\364\355\343=f\321H\276\373\031r\275~w2\274c\323\235=S\350\027=\315*\235\275L\346\351=9B\022\275\233j\322\275\261\2030=\235x\303=$xr\275\316\276\354;B\271\231\275\343\004\277;\217\352C\275\314Y\361\275\254\370]>\2531L=\3647@<t%\306=\215\276\341<\221~B<$@\016\276Y\220s\275J=\242=]\177L\275#aZ>s\017\212=ED\253\275\250\316\013>\315\221\347=|&\270\2740\365\317\274\367:@\275\237\242\354<K\304\022=\021\231\207\274\217\226\376<\227^%\275\017\311\r>\246\300\230\275}#\333\274|\007\206<&h\215=\345\231`=\306\270\234\275e\275\255\273\006p\305=\032H9>1\254A<c\265\227=p(\276==\364\234=\307\022q;\031\027R\274\364J\024>\001\333]=@\216\315<\274\325\361\275k0\013<7\2427=\260nP=w/\346=\355[c<\020\r2<h1\327\275\237\001\242=Fe\266\275ze\203\274)\343&\275fEm\275V\276\253\274\242\237\220\274?t\223<>&\022\276E\000\256\275I\377\216\275\311\213\t\276\207\210\224\275\225\023\035\276\337R\372\274\257uQ=\250\224C=J.~\274\240\030\">0\257\360\275\375\227\227<\250\267\356\2747\032\016\273\314\373\325=\000\306\311\275\271\256y=\035\254\023=\372N\214\2750\'\332\275\007\330\263\275\211\246\357\275\024\202\003>\272v\266;m\320\320=\315g\305\275\257\003\376\274em\261=\330j\225=\244\320\007>\022\303e\275E\273\037\275L\260h=D\241\355;\220Lc=\216\t\255\274G\311\311<\343\014\216\275\331dt\2734B\243;\307 D\276\3168\335\275d\202\321;\r\245\r=7\366\013>\300x\305<\253w\216\274\377\360\356=\336@V\276(\266}><\224\020>p\3333\275\265\251\203<\005\301*=\177}\372<\007\324\016>\001\272\222\274z9\210\274*4\311\274\216\002\313<\364\263\274=kU\020\276\303\034\001\276\002X\243=\327\330a<I=\337\275/\250;=2Ll\274\177\332\276\275\026d\231=\340\264\241=\354\217\307=\023\010o\2758\3741=q\013\346\274\222\t\220\275*\355\035\275J52>fg\241\275\034\344k\274\273\203\213\274~\360\202<9NV\275_\272\275\275\\\264#\276;\217\007\276\301\273\327\274\022\264L=Uce=\365\343\023\275\306 Q\276\2665}<M\340\322\2757\376\233\275`Ck<\361\361S\275|\032,\275\355\271\230;zK\314\274\010\212 \276\211\264\227\274b\036\301\275\020\247@\274f\373(\276q\346\321\274\1778\\\275\033\372\311=\342T\210\275\204K\260\275\222\"\014\276\360\3149=K(\324<\267\177;<\303&\246\275\277&\\>\021R`=\025^\314=QF\235\271\210\247n\275\342)\272=\217\260\010>\374\036\354\275\204vc<\243\2029\275\262\022\327\275\244\221C=\214)k\272\310!\202=V+\242=B\013\205=Gp\035\275\360\212\030>\236\207\212\274E\355\300\275\215\331\331<a0X=5\264N<V\260\253\275\016\356\005=\023\001\227\275\310\036\014>5\257S\275\365\277\215=\3254\212=\352\233\246\274\223\214\024=s)\003<\2740P=@x\276=\"\223$\276\037\2212=N9\224=\323\366\240=\367\315\350<\236y\277<=\327\245\275\240\316\025=wD\000\276\224*\036\276J\345\265;n\256&\276\0273\035=l\301\004>iez\2751n\356\274P\266\247=\027\036\235=\266\343a\275\357\232-\276n\253-\276Q\300\016=\257\001-\276\242\346==\344\225\016=\261\000 \275A\r\323\274e\360\372=\257\366\361<I0\267<\021/\007\276\355\344\220<\333\350\351\273\366\343\232<\0204\276\274P\370\313\275\232\255\033=}\204;;\372\200\250\275\276ii\276\2372\337=\002\276S>\317a\205\276\225\016\221=H\220\361<\360\324u\274\217\213\026\274\355L\253\274\223\357\3159%j\233=\005\004t\275\000\276\300<\001yB>\325\375 >\274S\340=\017\330\330\274\033\230/<M\247\306\275\216\353\325\274$\235v\275\356\345\\=;\223\354\275\262\277\344\275T\310\240\273j\024\203\275\203\352\362\275\353\273F=~\367\206\275ay\214\275|\247\247\274O\376\246\274\320.\374<\317\3719\275\272;\025\276\001\301\337<v/\017\274\320\216\017=\312r\303=\024\206\301\275:`/>\350J\272\275\301{\261=5Y(\276\\\237\002\275\263\034\303=\006\246\204<\214\"\200\275X\035\300\274>\235\366\274)mH>@\272\311\275^a,\275\235\261-=q\263E\274\020\364\306\275\274]o=\022\224\252\274$\233\032=o\215\024\276#~\006>\365\345W=\000\252\\:\367\007\027\276\310K\203\2751k\217\275YJ\241<\221\t)>\243\231\025\276\250\033\313\275\024%C>,\234\253\274S\322\364\274b\034Y=\366\233\344\274\232^A<\250\301\230;m\317\201=r\220\013\276\246\260?\276\244\266\203\276\236\243\242=\212\3034=\372\213m\275oC#<\216f\177\274N\242\235;\025\357\375=\345\322B\275\r4\367\275\340\247\247;h\257\006<\3479\225<%\210\260=\211w\317\275vXG\275\350\253(>\300\n\261=\303&\325\274qs\316\275\004w9=\303\223Y\275\001\260\026\275\377\002\225=\275\215`<\243\016\223\274`\021\230\275\332\306\226\275\204\321\004\271=`\244\273\025\300\023\275\234Y\237=\364\"\223=E\213:\275\355\230\210=\255`^\275;\2650=\276n\034<\037T \276\311\303\020\275\276\001\256=IR\203>\275\263h\275i\022\214<\016g\277\275B\322\002\276Ud\277=\331\251\220\273\202\375\252<\326\306\335\275r;\356<sE\223\275@Q9\2756\366K<R\363\033<\247\210\345=\007\372\232<|\005\321;L`x=\"\215\016\275\023\367\025\276\250\372\231<S\013\343=\\\267[\275\030k\314\274\3767%\2752\270\343=`\016$>9<\233\275G\311R=\037,)>\254V\002>\005\303\034\275\023\274\020\275;\367\346<\037\007\376\275 \234\211:\221\301\232=<\037\3729Z\305\327\2759@x\275\201@G=[\031a\275I\303\004>\276\010\014=>\001\243=\354\016H\275\266\227y\275\256Z\215=S\020@>\237\207\316=+M\202\275\r\315\346\275\234\213\302<\344\300\352=\257\\\275=x9\356\275h\016\372\275\006Q-=S_x\274\"\251;\276v\340\006<\233\265\322\275\251Ge\275\342\2578=\245bE;N\205\375=\264\304\375\274\343\357\364\273D\366\036>i\223\032=\245;\207=\273\030s\275\nA:\276g\\\250\273\247\016\271=&|\226\275\332\252\211=\305\341\237\275b)\037</\002\212<*\000p=)\221i\275\266\030-\275\265\231(=\022ap\274\306x\032\275M\212\237\275\307\264\"=fI\006\276\240\231\004\276\221\243\226=\234h\226\275\204\275\022<\375\316/\275\2673\326\275\357\275\r\276jg\000\276\305\231\305<\031)\001=\227\225\203\274\344\323\234\275\210}O<\350\340\211\275!T\326<\274\220Z\275\223\377\030>\313\354A<\303]u=3\230\035\273\321\226\034>\233\272\260\275\216\0165>\331E\006=\362,\010\275Se\007\276j\024\271< n\275=\204\030\240\275dj \276\337\351\216<7\036\362=\323\317a=Z\264a\275\202\262\210\274?\315\255\275\333s\010>\262\3740\276\031\320\242=8\206\245\274B\322z=\312\324\315\275\204\367I\275dC\204\276e\367/>;\200\203\275@OQ>y\342\030\276\365\356\"\275:\023\262\275y.\000>\317\311P>\037\227\016\274V\232k=\215\024\304:d6\323\274\337\330F=\263\320\357=\000A\224=\371\352\"=:\203\303\275\245i\031\276#q\342=m_\002\274\177a#>\003\023\221\275(\250E=\204\023I\275\206\250\324\275<\016l\275\344\365\253=\322\352\354\275o\231\211=<|\t\2752\313\241=~i%=\263\320\234\275yT5=\316\310\007>\334\nS;\036\360\033\276y\361c\275{\221\323\275\237\016\344=\270+\244=\251\366\221\275\217Or:\366Fo=\002\320\325\275v\'\271<\356`\211\275\345\0201\275w\367\254\274@\254Z\275\2657\233<\262\342\373=g\025[\275\224\212m=\224\225\247=TV!\275}\026\227\274\221R\017\276\237\021\211\273\007Z/\2750;\267=wQ\244\274)\321Q\274\225@f\275Y\222\345<HA|=\2403\221=\257!\037\274RP`=q\204o\275\215\214\263<\257j\317\275S\272\256=\034\376==@\213b:\007\177-\275@\355\010>Ml\301\274;u\260\274\242\2233\275\350\367x:\251\356\332\274\313\344\036\275\303\357Z\275\306\001Z\274^\212&=a\344\002>k\306\\<\216\351\272;\331}\222\275\306\003\006>\247\221e\275\231\220g=n$\323\275x]B\275\205\0364\274\376\336\311=\2471\267\275\243!\225>\270\320!\276<\227X\2750\026\367\275\363\020\017>w\025\310\275\023e\211\274J\255\244=\213\271\211=\321\370\022\276\022\210)\2733R\205<\232\037\321\273\3339\214=\177d\344<wi\350;\020-\276\274\257\312\227=K5\034=\2055\205=\243l\006\275\000[\266<\235\026\270;\340\033K=\241\355\277\274\2465\236=Cwx=ls\014;\277q\006;(0\334\275\343 N<\255{\242\274\366\232=\275\266\300\017\276\203\230\240\274\335D3=\2116Q\274\013w\'\276\336\341\274<\035\033\377\274\307\207*<\213\231\333\275Vg==\004\037C<\334\344\304=\351\377\264\275i\343\347\274\271h\347=o\023\232\275\372\310\026=Wf\010>O\333\014=\204\270\\=\332\310\320=\tB\225\275\204\256\"\276\257\353`>7gV\275\257\366I>\324)\317;\271E\315\275#=\033\276`e-<\022\243\227;\021\361\372=e\356`\276\\\371\262<eLs=\204\355\264=\250\022\345\2754\232[;|#\331=f\273Q<;\314\360\275\223\3109=U=\003=\2516\023>\311\334F\273\177\261N=\367\362N\276W\"z<b\364\223<UV\266\275\245\325\203\275\212\275\005;Yu,=\032\304\212;\020\304\312\275J\252\261=\321N\206>\332f\322<\014 \'\275\356Q\031=\377\274i>6\345\246\2751q\002=\025F\350=\365\340\\=<l\265<\304\022\315=j\212=\274\203\253\317\275\377\354Q\275\355\313]=P>\327=H@9\276%\274.\276\262\367;>\237h\270<\223\255\004>\342\245\271\275\204W\264\274u\310!;\177\272\353\274`jo\275+kg=P\020\301\273\224\317\214=\200Y\330<\007\266\205=\005\251\222=!Lm=5\202\240<t>G>Aj\216\274Xb7\2751G\307\275lF\037=>o\364<4R\037=\242\2210\275C\262\014\276\340\324;\274mK\035>d\367\365\275\254O1>F\244\320=\352d\305<B\211?\276l\205\312=\025\213\354\2733\351\237\275\001\3537\271\205\252\320;,\261\025\275\355\244\024>a\237\355=*cd\275\2774\331=\003@\265\275\267\253\305=o\311\226=\\\t\216\273`\307\255=\317N\236=\367\016\257\275c\177\213\275\200\245\213\275\2402\013=M1m\276\024#\005>\310\233\215\274)&\254=\233\246\000\275\261\2366\275\277\305\254\275M\3316>\026X\365<9\265\344=\262$\314\275g\0163\276A\026W=6x\351<\322\007\032>\351\014\223\274\006\234\320:?\272\271<\226\014\272=?\265@\276\006 \032\275OP\304=\n\341\204=\304u\231\275\\\031\031\275C\220\031\276\267\023s\275C\357\320\275\330v\336\275\016H(=\360``=\233\013\r\275\355\313O\275\225HA\275\016\"\237\274>\357\275<N\031\221\273s\366\036>\034_\212<P\324\305=\337\353\000>\350\030\007\275\332\375)=M\230u\275eM%\274\372\214\262=(=\357<\t\036\341<hl\311<5J_=\251\010,=\312\253\004\276\026\013\307<\373\376\371=\356\304\227=\355\255K\273H \311=\200p\222\275\246\235\327\271\375\3022\275v9`=\033y\035>\254\210\230=^\332\262;\237s\252\275\371\301\342<\377)\266<\226p\022=n\025\337\275\005\"\215\275\242\254\331\274\236\365\356=\032\264\\=\207\021b=\367\250\003\276\216\276\261\275\344\2242=\202\021\262\274xi4=@\366==\211s\261=\2545\345<\236\370\026=^\331\277=\371\346.\275\034\324d=\223e\205=\354X\022=X.->\233g9>\313\331k\275\006\227N\275K\301\220=m\226\263\275V\371\032\276\014\3016=\255\251\202>\034\326k\275\034\216\337\275\377.,>B| >\005M\037=\317\255<\276hf5<\255\274\242=\311\215\232;}x\311\273v\036\315\275\006c\264\274\252\377\362=\244\267\267\275q5\341<I\001\000>\3354\334=}2\300\274\257~\020=\233r\234\275\251\020\210\274j\034a=\362\364\004\276\307%$\2763?\220\275\316?\232<\377\254;>m\304*=J\251\325<\034cQ=\345\260[<zG\275=\037\230\341\274_\364\305=1\037\211<\036\214\364\275.L,>$\014\320\275\030\031\262\275\277}\260\274\262&\323\274\326\031\356=xP\230\274\264\311^={:\223\272\323\375\355\275A\221#\275\001\202C\276[m\363\275\210\3374\275\006\222\275\274i\226\272\275\277}\207=\\\371R\275H`X\275U%\t=\254E\240=\256R\242\275\231\210\367=x\027)\275*\256q<\037\217&>1\237\027\275\355\254\022\275\206\272\311<\232~\203;\345n\265\275\023\017m\275C\241\344;-\342?\275\307|\203>\375\002j\275\203\354\020>\213\271\254\274\\\274\032<\341v\320\274\204\273\267=\310#@\275\\\375b\2745h\031>\2230?=\316P\247\274\023\212\224\275*\326\233\274\366B\212\274\316\237,\276@\234\272\274`\013\366\275\035q:<*\215\200=#\001^=,:\251=\234\336\313=\020\376\206<\0007\352;\036XD=\301\301.\275e\"O=c\263\320<\360\210i=\20602\275`rO\276\324g\327\275m.B=\365\307\027\275Z[\374=\351\262\020=D\206\331;X/\031>\035\n\341\2753\222r\273\373!\303=`\372\241=n\025!\276P\212O<\303O\016\276\241\032\033=(j\237\275\2603\027>+;\221\274\030U\250\272\340\'\252\275IW@=\306\364\365\275\364\017+\275jj\347\274\260\224\271=z\357(\2751\362\264\275\231\352?>\221hu\274\024\357?=\374\001\357\274\276\026\027>p.R=\206D[>\344\244h=,\022\032=pi\263<\343](=\231\377$=,\323\263=\206\3476\275\262!\205;\262\251\335\273\000Z\r==C$\275\364\216\030=\374\357a\276\311\270$=\345qe8\363Z\326;\224\317\r\276\341\013\311\275)7\331=\370\367\031\276\026\025\325=\236\372\034>d\263o=mZ\206=Q3B\273\007\211\244=\366de=|#\224=\270\2634\275$h\370=\201\254`=\351\007\n\276\364\371\005>n\215\243\275\232\316&=\035\217\226<\270\261}\275|{\257\274d\257H=\303l3\276\027\025\300\274^C?=\353\204\231=R\243\255\275\345\247i={\n\240=\\\303\207\275\021N7:\315\370\365=G;9=\021e$\276\237?%\276[\312l=8\0075=\014}9>?\267,\276\376\251\n=T\325W=\377F\327\275\373\356/\275\346\247@<\023a)=\014\276H<M,?\275\236\253}\275\032\206\276=\244\301\334=\364\014\243\275\302]v\275\010\273\334=\001\362E=\177<\260\273\2479\360\275\241\276\026\276cn\255\275\343\375\007\274\327]\217<\226\214\326<_\231\204\274T\375Q\274\016\t\026>q\216\264=qM\277\2733\240\251\275\304\025\006>o\031\000>\217\205\304\272\022+\344\273\357\r\211=\t\277\355<r\no\273}\252\031=Z\014\236\272|k\003>ZQ-\275\003\2663>\234\372^\275G\356o= E\274\275\"mE\276\0005\306\275\0264\264=\013*\253\275m)\212<D\364Y<\263\303t=\022\245\304\274\261Ip\275\257\242E\274iY\373=\036\323\377\273\351\3277\274\243\257\372\275\237\320d;?\203\354\275\225k\267=/\223\217\276\251\357\233=P\204\273=A\2601=k\010\370\274\r\377\354=\353\267\244\275_\377\237\274\264\311\007=\2234<=8`\377<\321\037l\275\352\326\354\275w\334\243<\262(\003>_.\314\275\350\301\327\274\216>\355=\266}3\276\333\224\013>\376|\246\274LU#=\r(B\271\230X\231=\202U \276R+\210=\203\230\233=&$\324\274p\264\220\273 \001}=\023R\244\275\361\014s=\021P\277\275\334c\005\2764\332\350\275\352\250\314\275\245\3275\276C;\251\274x\355H>\367\325\020=y\321\260<\337cj\275|\324\305\274\023Q\266<\2530\346<\n_0\275\362\376\025\274d\320\335\275lM\225=\202\354\226=>M\253=\361\266\345\275-\023\022\274\314\231\332=IH\274=-\322\240\275\263T\205\273C\237\236;\035\351\005=\327/\212\274\253\021N<\016F\230=IoB=\245C\006\276{~\342\274\353i\230\275e8\373\274\316\201i\275\177\n\025\275\200\353v\275\352Mf=V\'\235=$\014\342\275\024\334\267\2750\262_>g\224\320\274\313i\267\275F\257\230;\272\264\234\275\005\034\017>\227\242\334=\010]\221=\037\200l<b\331?>\016c5>q\334\211\275}\221o:\200\232\266\275R\327\307=\351\230\310=\006)\334=\201\336\273<\264\257\375=p\2751\275\246\0264>\350\217\2129\315\242\210<\321s\265\273!\334\361=e\204\326\275\323c\004>\007\233\257<\034\345\n\275\305)\272<\356\341?>\013\214\272\275\342B\243\275W9\200=\270\260\010\275\205\001\034\276\250\263=\275\347\027D=\356\232b=\263Z\331=J9@\275\311\361\304\274C!\231\274\225\355\324\275\256=\221\275\316\203\351\274\317O\'\275\303\033\256=\224\026;>\263T*=\377\333\264<\314\024I=Mk\345=\354\306\245\2740\013Q=\332%\370=\303\232N\2769@\325\275\301O\261=\005\314\003>\323\232\342;=\341m>4\353\017>\021\234\323=\023\000\230=\325\3175=.\313\316\275}J\206\275\314\262\344=\203\366\240\275.\361]\275aY\010>\275\310T=\033\303\222=v1\"=\025u\247=y\200\263=\022Z\353\275\023\276\"=Mf\200\275\014w\'\276\201^\242<\240\344\302\275\243oM\274\310]V\276h\360\375<D6?\276\0067l=\034\010v\275\373\313\273=\323\353\035\274\207\240=\274\235\231\022\276\344\0066\274\221D\">ew\326<0\2428\275\212\345\276=\027\251\337\275\017\024k=\231\361\'\276lC\336\274\036\027*=]\031\216=\345\217\213;\\\362\274\273m\260\320\275\022\211X=B\035\234=u\250\313\275\373\345\234=\351R\243\275\267H,\275\010\036\255\275\237\341->3\370,=\003P&=\217%\001\274\273\315\307=\267\027\222<\356\226w;\270\206M;\265\022y<\317\370z\275\225,\204\2742\363/>\235\311\271\275\307\206\306=\202\275\215\274\247\364\271\274\240l\223=\252FC\275\315\353%\276]\372\304\275\2533\273<\264\373a:\275w\375\275\225s\354\274\253\017\346\275\036S\251\275\036\2024\274\336\363#=I\361P=e\3108\275\020\350\361\274\304R\331=\311\213*\275\020\2760;\240\334\354\275\202\2511\275\266r\002\275\031\216\277<B\322\002\276\023=\311\274\002f\216\275m\340&<G\3507\276\252\360O=<Te\275\215\352\242\275\316\372A\275J\200O=\367\333\t>Z\373\255<\235\250L\275et\274=\371\316\352\275Q;\346\275=\225\243;\306^8=\026;\323:\200\242\215\275k\242\262=\337\200\001\274\343jh<&2\025\276\234}\260\272\265\r\346\275\017`\322=\265\313\t=Ve\n\274A:\347=\n\353\256:\016l\234\274\3032$\275\226\266\230\273O\001\\>\335\330\257;$\306W=\3132\247=5;|\275G$0=\344;\t>\037^\016\276x%\205\276\330\231\026\276\317)\034>\321:\024\275\337\033\016\276\237v\240=/0\333<\361\376\203=\034\316\231<\r\316\211\275F\305\001>\010\036\244=\212\007\270\273\263B\t\275\321\240\344=\273 \305\274\3665\240=&\250\377=rgM\274S;\020=\275*W>\233\265\330=\021\001t\275R\311N\276\023jc;\245\230\254;GxM=\356\214r=5b\234=\374\022\373=\261w\254=\204\033\253=XF\227\275\277\364\332=L\350\323=\242\235\317\275\376)0<\277\270J\276\rVf\275Gb\301\274SC\336;\310\3349\275fW\252<\205%\311\275\211w\331=\323xG=\371\241\300;J~\014\275z\314\t\276T*\264\275`\254\257\275\225@\031\275\2742\324<5\332\021\276J\\\341<FW\236=)\013\016>P\331\322=\207\250%\275\253\311[=\027s\005>\013\341\271=u|\367\274\2246:;eW\317=\260\016X=\305\235\214\274\247\320A=\351\2326\275\303\275\351\274%:\255\274%@\004>(\316M=#\307\002\275\346;\013\276.\314\r\2735+\006=\354\304x\275\260\261\311\275\033\347\356<*\210\374<I\3418=\304\350\"\275\216W+>m\211\030\274\334\035\366=.\030d\276\215M\">\343-\307\274F\252d=Io\210<\202s\317\275A\023\204\274r\017\371\275\3061&>D8\237\275\032w\271\275\340G\001>P\0249\275\203x\335<WfA\2752+5=A\363I>\033\2607\275\220\365\324\274T\200\346\275\177\2053\275\010ih=)\260]<\374\305>\275\323\234\300=\320\025\022\276/\r\013>h>l=\227\315\236\275\241\370\203\274\017;P<\2551(>\344;c=\177cq\275\017\304M<\271 \343\275\"!\035\276\227*\234\275\273\212\3109\311\336\341=\206\337\267\274\354y\212\271\340:\241\275\246\314D=v\231\024\275\221\325J\275\370\254>\275\270\004\354=A\346\205\276/\360\221\275=\356^=\030\243\227=@L\373<o)W;Y\245+\276\307\354\317\275\325tV=q3U\275\261\331\t<d-t\274\340A\022<\241T6>\253&\312<.D\367<\316t\250=\206\324(=\203\351\325\274\333\'\350<1\'\t\276\203[\253\275\273\3147=\006\213\333\275\353h\212=\340\234O<s\305\233\275\324\n\263=_\332V<u?t=\364\033\225\275\222\376V>\211=\352\275\254\236\204<\204\020\344\274\246A\200\275\212h\201\275\323\277\023\275%\251\235\274A=B\275\267@\343=t,V=$s\007=5y\001\275\376h\207\275\216\350I=\340\014\211\275\036g%>>C\307\274\273`\023<\207 \264\275{3<>r\324\337<\313\002V<\301\0149;N\232\005>\273\361h=O\301%\275k2\312<\272:\304\275\002\"\300\275\365H\353<\006\260\205>\221\341N\275\325\322\331<\363`\306<\305\177\350\275_\356\351\275\r}\224\274\254\230\231;\215\005\223=\233l&<\211\360\271\275\340U\370\275{\250\217\275\300C\210<0S\002>\244\306\210\275S\242\212\274R\254\027<B\225\253:\233~\324=\\\343\031=\277\364\027>\311\260\357=ke\007=\237\026D>n\336R\275\236\331m=H\027\275==\202\351=\2173\021\274\353\243\245=#&\002\275`}\261\274Ra\220\275\347\215\274\275\321\346\202=0\177\356\275_H\335\274\251Z{\275\364dm<.\303\013\276\001k\022>\344\037\306=\022\")\274\247\035-\276w9\244\275\037p\355=\233_\231=\320\256l\275\3251\013>\344l\345=\214\016t=8\205\025\274\354\027\275\274P\332K\275.l\336<\3679\260;O\244\334\275ZU\234\275\001A\026\276\'\327\211\274l\002\010\275q\204\263\275\261\241.\276\301\234b<\231\260\n=\263\211\240=\"\0348=eI\256=\355\201\312:2\354\307\274\277\253\317\275W\364-\275\025\317\031\276\273\262\331=\321\304\010\274\210\035\343=\262\222\245\275\014\026\274\274\331\030+=9\374\206<\013\303\007>\246kq\275\361P\353\275\253\344-\275\315D\202\275\263q\372\275\033\321\254=\276]]\275\301\245\200<\351\216\001\275\337?\242\275\370\000\246\275\332;\332\274\247o\264=\201\034F\276\365\273d=\361a\003;\005:F\275\215.I\276\n-\227=}\332J\275#<1\276\220|\263=[\272\360\275\023\027\010\275T\332k\275\320\021\311\275\203X\370\274\325\202\026\275e\3373\273\301\201\205\273\215\275\347=\377\327\343=;\251\250\274Q\350\265\275\205-\001\276Qi\227=\242\337\373\274\033\301|=\006\345\177\275\013\016\202\275#^6\275\200~\323=\'*\006>\3718O=\r\224`>\311v\017=x\036\236\273\230)u=y\010r\275\373..\2769\312\025\275\210\2712=\306\212\225\275\327)A>\004\333;\2750\020v\275\222L\217=8-~\275\231B\031\275\257\204V=,\023\303=\034\352\345=\333\240\010>\226\342\205=\017W\237=\356\232\341=\341&\254\275\343V\304<\363\314\230\275\234\3335\274\322\025\027>\003\252.>\350\\d\275q\336\247\275\337\277R\275\232\247\313\273m;b;N\005\202\275\021Y:=B\214\237\2750\213\315\2758\374T=x\324\273=\225V\302<\263Z\315=\305\014)\276\246\262E\274\244\335\373\275\340\r\361\275\337\017\362=\000\317\235=\272\216\257\275G2p=\226\353\013=|\260V\273\374$:=\203\352W=\351C\001\276\227\300e\275\227T\367<\2636\023=i-X\274\263\036\013=\177\'\225=%E\204=\232\242\037\275\2014\003>5\033\261\275eaA=Z\320\371\275\1773\213\273\214\324\267=\'\002\363\2747\021F<\227\0165\276k\217j\275\241\003O>\000\340,\276\306\212/;/\343\254=\024+I\275\246A\222=\250.>\275\352tm\275\313\014\004>\336X9>;\364Z=S\342\275\275\374h\236<I}\213=\341\261\332\273\256\2774=\300\373\204=\010C->\301\274\355=\203\005\230\275\325M\273\275\020\366\004>\021\333U=\333\206F=\244\276\323<\r8\017>B\263\267\274\020\257\267=\207\370\233\275H^\002\276\275\313\313\273S\333\007\275\237N\220\275\326G\275=[\211\320\275\365\315*\275\273D\363\275\270\373N\275\226\251\305\275\024\353\341\275\375`\027=\353\362\223<\254\340!\276\330^\200=M\370\226\274z\355\222<\302\242\277=A\225B<2\'\004>\201\321\276=\0226A>]\313\020\274\264\217\030=\243\363\236=\310wA=\257\322\304=P<\037=\205\316\200\274\373\211(\273\365^\316=\345\203p=\277\035\020=\2355$<\345\327;\276\025\020\201==A\034>\322\340\220=\330\363\265=\314aX=?3\367;`\030i\276\361\247\253\274\277\334\033\275\016\026\\\275\263b\342\274\305\367\035>\273\224\351=\271\304\227=\215\273,\274z\234s\2756\335\263\275\332\313\246\275>\211\271<\377\320\252\274\366G\036\276\0179>=@\250\036\275\216&\336\2756*\340\274\030\335)>NQ1\275\030h\223<\014\3379>\334C\016\276\300P\230\275\364!\275\274i(a\275\230\323\235\271\010\322\367\274\2136\346<\264\231\251<8\221\241=\353\220\205=i\307\256=\336\246\325\275o,P=:d\302\275\245\260\307=m+#\275\226\002\234\274\243\031\003\274\216\314\003\276^\013g\275\230,\025\274/\213F\276\347\030\305\275\203\215\203=\222\215>>!\246\013\275\254h\251\273\035\002\030=A\300\231\275]o\013>\306\322\">\311\035\"\276\\\377\033\275\365\302\370\275\346\"\363<\234\250U=\0016\203=\371 \372\275\310\017\346=\332\363\365<%\251;>\344\213c\275\245}\377=\0361\332=\260\224\032<%\205\237\275\357\260\310<Ey\037\275?\265\241\275Hv\262=\225\217`\275L\373\302\275\273L\026=\355A\010\2762\"\017=\311\356\000>M\221s=\026\023\272\274Q\236%>\013Y\013>n>\313=\025\242\203=x\274\246\275\023\272\005>\202\234\360\275\374\350\362<\226V\377\273\335\203\203;\364,\014<\251\274\306\275\256<\346\274\202\306\376\275H4\323\275\000\277\014\276v\273Q=\202\200\200=\3536\n\274\330qY=\231\330\371;\347 g\274f &\276\325\327\371\274q\236\302\275\001<\347=\203\324T\275\273\306\303\275=\225\374\274\304IW\274\274\317\202\275\311a\244=\227Y\250\275\265\251,>\222\252\234\275k\033\231\275\220\267\023=\377\346\356\275%g\003=}\205\r=2\341\010>\254j\306=\021\226\333<\\\020z\2753\'$\276A\310\006\276\360\351/=\324YK<%*\031\275M\014S;\037W\010\276\001\301\320\275Q\374<\274n\024\333=\307\252\000\276\220\356\265;\347{\337<P\373\327=\226\233\2229\2762\274\2756\316\n\275\005\355\006\273\222\205\324:\325\'\240=\303\214\226=\027\037\034\275\324\025W\275\266\231v\275Nx\356\274\335<t\275\005\327v;j\357d\274\245c\207=\216b\340\275\2266%\276\276\225\244<\342\250\230\2744\217m>\346\212*\276y\240n<\312\263\331\275X\r\241\275S\271\340=\"\367H=T\037}=\337\017\025>\342\217\257=h3I\275,[\\\275E\305\034<\243Cd\275\256i\010\276\'\023\026=\036B\210<\024?V=QT\365=~c\r\276\244\376{=\203\371\316;\357\027\267\274\371m\235\275/3&\276\246MW\275\372f\220\275\205\327\016\274\006D\365\275\210}\275=\324\247\375=U\212\214=6\230/=8Z\211\275\350\274\370=\354b\257\275\025G\206\275\334\020\034>\232\226\224\275[\365\217=#\374\n\276!\317->\3241?>\310;\033\276\005\325\250;\r\335\242\275I\213\207;w8K\275>V\202<\224Q\023\275\006n\344\274\270;\326=\203?\335\275\234]C\274\232\231~>\376%t=\020\022\306=\026\017\013\274\342q+<\020\365S\274\033\253w;\002\271\350;\206\321`\274\365Px=w\277\r\276\276\204\024>\215\251>\273$\313.\276\336\344\326=\213\235\255=\210K\365\275f*\315\275T\260\343=%\"\023\275\300\300\242<\214\232\301<\203\004[\275\324~;<Y\215\312<\030\304\214<\3361\032;\026\363->\021\220\020\274\353\205\231\273@\202\372\273\303J\211=m\001c\2755Y\262=\250\264\306\275/\027\357=\036\323P\276{8\362\274f,\001\276\255\267\200\275\235\327\320\274\316\377\236\274\254K\221\275\261\276\235=\317\234\377\274\256\217\371\275\207\230\303\275G\264\326<v\373\300<0\266\210=~\240\326=\223\366*\27614^\275#\237<=\333\250\024=\226\342>\274\\\377\017=\222\206D\275\347\335/\276\267\014\351\275\t00=F8\033>;Z\024=36\036\276\275\217\027\275\014\216C\275?\355[=\022\203\260==K\252\275\262I4\276\213\367\252=\241\227\267<\261\017V\275\324\365\336\274\343g\251=+\277\377=\367\224\343\274\216\220!\275Bo6\276\030O\224;\0134\302\27523\036<\234\313\243=z\000\036\276\352\321\252=\322\217A\2752\233\223<\203tI\275(\335\364\274\034`U\275\326\273\343\275\351\204\302=\374<\302\275?P\242\275\200\306N\276\2743\267<\242_\325\274\342N\363=4\216\004\275\305\037Z\276cH\337=\266K\260\272\352\n\303\274\322\310\246<\311tZ\275\322\031==\3475\033\2752~\"=k\214\031<]_\343=\360\034\024\275\374\304c\275\375|C=\334\241\374\275\370ec\275\264\270\257<\273\320C;\2524\346\274\222\306)=)\304\336\2753\017T>\342\332\026<b\367\201=2\231\264=\220\250\342\274_\367\256\274\313\223\033=\220\341\265\275L\224\251\275\345\016\016=1+F\275.j\233\275\327n\204\274\374\356]\276\222\023x\276\324a\203\274\030^o=F\377\311\274\325\373\211=\024\340\345<x \262=I\372\236\273\"S\324\275\370\344\201\274\353\202\261;\314\023\036\275\371\322\212<\330\254\005>\002\243\371;\223\242\\\276\310\274\234=\026\351\014\276\317\232\215\275\353\215\021\276z9[<\r\206C\272\037\267p<\224\024\360=5\300Y\275\212\331)<\303\326\200<\326\311\347\275\215\266\220\275\342\'b=\347\325z\275\245\251\022=nW\262=\256\226\005=\004\226\366\274\242\330A<\345:\001>\345\313+>>C\214\275\326\230<\274+\221\001\276\024N\353;\237\t\034>\036\320\261<\375w5\276>\311f=aN\276=\255sQ=a\273m\276 (\323=d!(=j9\006\272\237;\323\273\353\224\232<\r\032\322;\003\224\347=V\260\037=i^\021=\0170.=e\237\332\274 x\300\275T5\325<~\263\013\275ww\261\272\244\004\251=\314u\232\275[)_\275K\237\371=y\017?\275\364\206\312=a~\n=\014\033\014>k_J>\001;\231\274\241\000\350\274\226\371p=\351\000\021=\237\277\227\275J7[=\345\300\277\274\254\265\325:iE\000\275\237&V\274\235\023\210\274\023E\254<*hO>\257\004\001<2\021m=C\3501>s\220\317\274\320\\\277<\300\305S=Y\257\023=\311\260\335\274\264K\326=Z\200\207=\031\301\364<lX\303\275\277\346\301=]\\\245=BR2=7\375\000\276\263\346E\275\277\003j\272\312\251\334\275\335\324f\276\312[7>\266\234\341\270\013\220\361=\356Y6=UxX\273;\276\001\2762\"\260<\324K2\275Y\006%>\225\2172\274@\204\323<\227C<\275\320\302\t\275_\335\207\275\214ot\275%g\236=?|e>\351a\021=\310x\032=,\r%\275\035\263\010=\013\233\247\274\232\020\214=\302\266\347=\245\330\n\276\267\027\332=c\334\362=E\220\225=\275\332\222\275-\340+=\033\262\020>\200?Q\275#\204\037\276\270\020\212\275\373\251\352\2741\257\306<$Y\277\275\r\234\010>\337\032Y=\353d`\276\272\313\313=\010z#\276\003\356&\275,\327\223\275\364?\270=\270\267\002\276\372\277o<\030\256\360<\014\276\306=\267yJ=\315~\000\276\017tL=89\360\275\204\2709\274a\277\214<\025\032\326<\260\217\262<\347\315\'\276M\223\236=Pn\020=\357_\334<|D\247\275\036*\217<\317\251\010=\352\"+=\351\247\304\275n\327\353<\321\365\017\276\035u\024\275\242))\276ke\342\275\367&5\275\277\336\370\275j\377\033=)\361\307=\240\022d;\t\245\013\275\036\217\271\274\205\267\020>\200\177\347<,hC\275)\216\237\275[C6\274\013\223\031\274\314\232\026\276X\254\225;\330L\001\275\333\352H=f\376\277\275\0040$\276\004;\340\275l\270\210\275>\234:=\210\327\221=f\323\016>\222h\035>\242+U=\016_\024=w\374\347<\nM\024\274\362_\252\275\355A\254=\220\346\207\275\004\345\234=\336\334K<Z\030\232\275w\027\224=\263Eh\275c\374\204>\214$J=\016h+\274\227\202\241=\230!\315\274\343\217\306=\264S\312\275\370\031\221\274\326\tN=\336\253u=\202\372\332=\253\0057\274\027\355\220\275+\261\217\273\275\337\213\274\204\307\236<K\212\365\275\330\267\235\275\250*\306\275I\2041>\005\002F=\230\223\226<\323\275\003\276%\302\245\275Q\037H=\030|\354=\364e\000>\237\205 \276\266]\376=\266\377\332\275\341\347w=\245t\303\2754l\024>\343\307\003\276\340\262f=\336W\355\275\316\013\237\274\217e\232\275\375y\n=\341y\322<\340\353\204<m\256E=\304\303\365\274\240\377\343\275a`;\276M\252\267\274K\007=>|d\003\276N\306\373;\356\"n=\357\243\250=\322\034\003\275%4\345=\2016\213\275\244\3516=Y\320\375\274=Q\252\274\206\314\254\275\241\363\207<\005\353\226=k\326\257=\317s\006=1\211\005>\272\353\306<\316\270\347\2757C\272=\222\220\254=GQ1<\032\215\001=\310\230\202\275\300c\036\276Rd\346\275w\241\252\275\263\263\315\274\206\270\321\275\210$C\274d?F:\027\264\014\276>\307\320\275&)\014=\"J\363\275\331)\277;\000\207\034\275\312R{\275&\352\002>|\272\027\276\352Z\232=J\031.\276r\260\244\275\200\213.>\355\263=<\004\242\370<\021b;>\020\326\222;\212\337\201\274\240\343\'>qXE\275\'\272\216=\355$\262\275\300\250\314<.B+\275z\275\223<\353\254\357=G\217\023\274\010&\331\275t\345\370\274\365\274\231\275\316\345A\276\252|;\275\224x\000>:\265\231\275\330f\345\274\025\304\035\275\240\250l=\337\034\210=\346\276:=\020\374\023=\026_2\276bX\341=c\274\330\274\353\005\361:9\266\234=\310\252\274=\277\257\2249J\307\247;Q<\025=~\245\005\276\354\367\312=\021\326\222\275\0167\303=\376\207h\275J]6\276\037\316\031\273\3358\010\275\t\346\326=\260)h\275\365\273\267\275\000x5=v&\344=\"`\177=C\267\006<G0\247\275\373\027\253=Z\030\352\273T\025$\276,9V\275\312\372\216\275\315\215\261<\356\212\211=\036A\267:\304\221\314=[\177\006>^\211W<\307\234A\274]K\'\275P\305\213\275}I\273;\023]9\275hH\302\273|S\002>\20233=s\325\021\275\241T->\026\210%>\363\370\267\275 \242\005\275\236\t\000\275\203\373\343=\350\310Q\274\211\221\355\2711\020\010\275\224\312\005\275\363\324\177\275Z2-=&\032\003=-p\364;s\355\265\2752\261\021\276\r\207\374=E\277\263=^\303\271=ua\003\276\200ka=\037\200\004=\303m\370\275\313\355\322<\203\224?\275\337\350\375=\017\006\224\275i[_=\005}<\275\213\307\244\275\327\367\004\276\177$\356\275\247\204!>\021S\002>\307\353\222\275\240\350\334\275\2657G\275_\2043>\257\340a<\351\251g=&0\220\273F5\305\275\204\021\361=\213\207;>\311\366\372\275\342j\356\275\264\311-\275\371\353\027>\261S\373\274>\314\305<h\255\331=\201\3045;p5\034\274o\321]=m\352B\2751\004\216=\225-\000>\227\2053\275\220\007\263\274\307\342\201<\001\014O\275\016L\025\276\277N\035>\331\367\275\275\204\240\033=r\342\211>\202N\274\275j\272\276<B\016\000\276\352\310\223>8\002o;\202\327;\274\371D\216=\260\214\006=\031\032\022>\260\257\352\275:(c\275\275!\026=\352T\307;h\204\330\2754$\022\275i\273\302=\305G\311\270\363k}\275Xu\013=\tt\300=\223\020K\272*n\214=\365\224F=\213)\026\274\'\210\353\274\303\010\211;\323\205\355<\376\320m\275\327e\202\275\266\367/\275\212\003\344<\022\254\213\274\036\372\362\274Y\251K>4|\004\276H\3553\275\303t\027\276\352?\003\276\013\026\330\275\276\336\222\274\333\326\277<\' k<\232V\376\275\037\261\023\275e\271\003\2765xt=C J\275\201n7\275\027\220v=!\314\010\275\354;\262=\266\311\207\275\203$\332\273kU\031\276aw(=`\350\013\276\301\322\361<sT\312\274\364g\226\275\214=\022>\345\237\323<\263\216)\276s\267X=\255oz;\272.\356: T\257=\336\356\325=\307\265.=\342\246B\275\276\027b\273\007\277A=\202\347\267<\363!]\276\372\216\201\275\372c\202\275\367\"\030=\006\205\347<-\225h>\356\246R<\333\364\005>\361`u=\030\320\250=\003\212F\275\245\001\205\274vT\331\275\\\337U\275\247u\375\274\205\307/\275}\260\004\276\206j\305=\373\216\"\276\255\024\n\274\337\241\310=\rI,\275t\014\353\273VR\000\275\303\255\304<%\326\243=\240\262(\274r\252\350:\366\372\244\275\246\005J=\237\342^\276\021\254\331\275[\262\023>\257\321\272=\265\250V=\232[9<=V\247\273\204\305\234=`n\254=\342R\325<\346Q\n\275\352\007\344\274p(G\276\241\t\224\275TA\247\275\265}\256=UGS\273\247{m\275k\275z\275x\261\212\2759\253\003<$\262\201=\344&\364<\301:\237=\317\237Q\275\340\0017>\370$\316\273\tR+\275\246A\004\275\261\214\t\2765#\326=\272\035\206=,\213D\275\001\214N:\233\\\253\275\354\252\277<\316\3622\276\366\215}<|\021\035\275\305h\261=\226\206X=T\340\031\276\275c2\276\"\263\017=\322\333]\274\210\014\377=r\252*\275(\234f>>!\232\275F\010\r=%o\303\273:U&\274\035\270\236\273v\347\020=\235B\256\274\370\326\205\275\352Z\217=Kz\334=R\366z\275\376Bu;oN\274\274\'j\342\273\002\366q\275\227\220\242\273\203\307\241={0\207=w\013\"\275@YI\275\230\236?=\221yB>\351\363\266=z\261\270<_*\313\275\316a\244=\351\026\021\275\314A\233=\234\264\244<%\032\235=\361\241\261<\226\357\275;\362\306\006>bW\220=\267\037B>\305\334\217\275\335\335\240\275\240\267\216=\321R\370<\021W\217\275\273\371\227=\2056\276;\304\2244>*}\345\274U\215\377\275y\272\024\275\024\220\204=\334\020\366\275u#\r\276\260s%>\334w\003>\025\003\223=\311\375A\276*\204\354\2746\321\030>\240*\300<\244\000\233<\332\353#\275\232\334\036\275P\031\272=\266a\244\275\177\216\350=\027\320-\276\010\305\r\276\354[,\276;\250\322\275t\234d\275\373\t\253<#\264\303=C\211\217\273\214\316\025<Sq\"=\234\201\272\274\267\241\242\275\302x\325\275wa\226\2755\204\202:mj\225\275\225$\255\275u\315\225=\260\023\234\274f\177\301\275)\256\035\276\217\020\213=\301\331\237\275\021\210\003\276\233\352\300\275\334.X\275\327\304Z<\316yW\275F\311\006\276-\311%=\006u\233=5\367\267=8\250\264\274\352\023h\275&P\242\275S8Y<\305cv<\312\360$\275\3362\363\274\330\343\356\275\200\215G\275\332\251}=\rs\022\276\256(\302<\222\346B>\210\250?<*$3\275\374\220\343\274\3725\256=\247R\376\274Y\371\027\275\232\304)=\tIV\275(\367L<_\204\271=W*\337=Jh\241\273i~\273;=\374\027;Y\352\206\275\037$\263<\227{\004\276\231h\240<0\303U<\330\t{=y\300\334<\367\371\302\274\217\216\227<T;l\276\357eu\274~\276+>O6\366\274\311V\022;\032\360\000\276\010\347)=:\265\032=\263\251\\\275\244\305\246\275\305\265\272=\250\260\036\275\n\305\224=\216\224\350=\207\347\005=\2610c=\320\317l\275G\036\032\276\\Q!\275\212\332\363\274I\026f=[\031\222\275\023\213Z>0^8>\273\016\332\275e\256c=\273\372\267=\230v\206:\240\201C\275\255\370\207\2756I\t=x\316\037=H.\234\275\230b\240\275\351\267_<\232\210Y=^\247\212\275%=8\276\\A\t\274\005\0260\276#P\351\275\022\261\364;FW\200\275v\251\013\276\036\t(\276\311\306\177\275\034\366\030=_|\003>_\270\222\275\276\311%\276\255\332\005>\036\n>\275\275\220\037\275\310\371<\275x\035V>\'\303\320\2757\306\360=\225\207B\275o\n\022>Mo\314=L#1\275\352\327\t<*\013\216<\2113\213\275\275\350\330<R]\263\275\226\371\316\275?\317r;V`\214\275j\037\010\276b`\2716^\320\226\275\024\267\024=\037jh< Y\237\275>[\242<\333\036\001=\204[\021=x,^\275\315R\212\276\025\244W=\212]\216=p\004*\275\231\341\002>\223\314\223\275Ek*\276\233\372\005>C\201w=\377\266\352;\347\222Q=\2320\222\275\252b\377\274\310\022\231=f\250L\274n\244\000={\3102\275\267;\277=EO\330=*3\267\275\2418\277\275\0343\376\275\036\276\016= \342-=\300\214\245=`\242\270\275\230m\037>9\235\005>\324 \207\275\226\305\032<\214\225\014\276\272\305b=\320\226\222\274Q\231\214\275\305\026\333=\2455\327=q\033\001\276\001_\334\274:\037\212<ah\010\276Y\316\357=>v#=N\316S=\372.\300\275G/6=\334\364L=#\324\217=5Z0>\375m\221<\227?M=\210\202\017\276\263+\202>\267\212\316=\327\321M>{\315\r\275\256>g<Z\257v\273\305\2152\275ze\007\275+k\254\272l)`>\256\205\031\276{$\207\275\332\357\274<\352\355\340=u\265\230=\365^P\275 p\337=t\377\016=<r\006<\251\014\254\275]\271\240<\020\3554\276\376\216\221=l}\030=\242\317\331=\362>\033\276\013\032D\275\213\031\330=(\006\320\274\264\3335=\253\365\225<\253\231\022\276|\302\\\275\213\375\014<d\220\276=\021\'\261=\340\353\260\275\232\251\252\275\326\021\037\275\306C\325<\316\363\031\2753\255F\274\215t\257=\251\313;\276\ry[\274v\227+>\305\003\252\275\335)L\275U\2127\275\263b\001=\230\307\223<l\370\247=_-\311\274\354M\253=Z\307M\275Y \033;\033\241)=A\027\311=C\030\260=\203\211?\274}\375Z\275\357\226\t>c\214!;\224X\377\274\213\243\214<\313\367\216\275\352jx\274\001c==X\\T<\t.\340=\367\331\001\274\302\206\240\275Ro\274=\201%M\274q\326X\276\316\203\226;\"\"\261=\212\255\317\275\014\337\271\274\315\256a\274\227\201\241<\227.\375=\240J\277=<\326\010=\375\376\031>\352\001\026\275P\251)>\260x\025=\321 \356<\304\375\254=\310\274\024=\205\240\363=\032\r\204\274\"\217\302=\2541\344=\252\016\201=\330\340o\274\303\270\037\275\223\202x<\276Y\214\275\207\220\310;\234\"\"=~\331.=\234y\215\275\020\232%>\262^\367<\026E\307=\264>\272=\275\237A\276\211\201\201\2755\213\177=\024\026\230=\236\355\233<\237\315\317=t\031\303\275\002\037\000=G\371~=a\3334=[\023\234<`\024\022>{FA=\'\302\313=\356a:>\020\216\353<]\227\025=y\221\212\275\020\234\255=]\207c\2745\225\020\276\037\213\210\275i\3462>\354\354\217\275QIr<R\271\271<h\202D<-\357\224;\010C\243\275\337I\212\274\2254\177\275\253`\371\275\241k\375<\332\375\364=\316\"5\276\257\007\216\275\351\250{;\247\200S\276\321\304\235\275\006\025\000>\206\213g={\037\206=\014|w\275\235p\363<\205\257Y\275\250OC\276:\204\037;\370L*>~n\340;@3C\2757\201}<\035\232\244=\013\221n\275\343\\\330\272W!\370=\374\022->\332\276\013\275\032\001\274=\376:\241=\321\241I\275+\373\022>\276x\256<6\177^\275?,\005\276m\343\037>\336YD=\255\360&=po\352<\260N\033>\274\346\177=\207\340\037=\251\014\334\275\013\022\210:\306`\312=\335\"\r>\207\326\200\275\252\243\201\275\353\t >\204\310\002\276\252\0241=K\201\302\274\036r]\276\3111W<l\314\026\275\236\353\245<\223\322\242\275E\377\264\275\027/\000>\\\327\'\275\211:4\276-o\274<5\345\230=,\240\274\275\004h\374\275[\303\013\274\223N\352\275Sh_=\232\341\204\274\321\335%<\226\217\263=\376\225\351\273\2254^=@FO\274\021\335\r=,S\317\275\273\017\257=L\'o\274[~{=\322\323/=tO\332\275]\310(\276\376H\245\275\227\307\336\271\214P\370\274\027\215\034>\323\362M\274\260\025\353=\352H\213\275\337r*\275\020V\006=\203R\232\275\213\364\022=;\363}\275vc\033\276\374v\323\275.\203X<}\037\352;\031}>\275*\177\260\275]\337#>\242\335\245=e\2540>Y87\2761\354\254\275\215\360\256=\370+\224\273\207B:\276/a?=M\373\243\275\221\033\323=M\322S=<+\347\273\342\242v=,\026F>\200\340\311\275v\027W\274\226qH\275\036\247\370<\336\005\024\276\025%*<B\303->g\'\215\275\333U\272\274,\225\000\276\351b\001>\235Y^\275]\014\275<\277\235\'\276\230\242\003\275\310\225\216=\362\342\022>\316\r\222\275\220`\023\275U\022\247=\206\n\271\274\340\261\321<\234\022>=\341.\021=`x\311<\270\033\244\275\202n\251=\260\027\024>\277s\203<\340;\376=\301\212\325\275\222\300\264=0\363\004\276\275\'\031=\377ET=.\307\263\273O\027\001>-\001\023\276*\373\263=d\305\016=q\200d\274m\350\241\275F?Q\275>:>=\212\255\206=\307\250\205\275X\n =|\306n<X\364;>ml\223\274\230_6=\314\221\020\276\260\'\271<u6\302\272\032\267\307\275y\307\304=\020\261\203\274p\312\327=\002\320\235\2748\245\006\275\251\t)\276\025g\264\275\362\230\263=\242\231\034\273\336\271\023\276%\237\374=#\000\215=\236[\333\275\024?\240\274F\321J\274\321\\\315=\2631\273\275jg\312\275>A\234\275l\373-\274#~x\275\251\0216=\360\016Y=sZ;\2755g\305=\226\262\321\275a5\232\275b\221\226<J,\013=7w\271=\355:\252<\035\260}=\363U\004\276\341\023\260\275E\243\035>\242B\006\275v\355\033=i\223\221\274\223\226\207\275ytT=\234\367!=l,\250\275\027\344\217\275\236\365\203\274\"\372:=3\342\007=\200&_\276\031\232@\273z\212\212\275p\367\033=\235E?\275\260O&\276\344\001\373=\010\016D\276\235\207\000=\352w\257=i\304v\275\224\252\014>L\321?\276\262\343\373\274\222\316\001=%eB=S\350\177=h:\302=\331(\231<\323\033\004\275S\"\365=\312\210\034\276\266\210\217=\377o\200=\377\340\034\276\016\314\005=d(P\276\034\240\216\275\004\344\207\275\001|\367;\330\033\235=e\202\230\274\332\032\000\2755W\007=\226\2074\275\356t\025<\\c\036\275\217\232\274<\3061\242\275L\0072\275#\253\007>\261\260^\274\360w\345<\314\320\030\275E\267\233\275s\006\241\274\002\010\257\275\250@\354<\233\344\010\275\222\202\264=\250\001\310\275#\020\347\275x\261P<\304\261\332\275\034\341\031=\202G\034>Q\320\201=\362\315\352<\311~\003=\317\030\205=\262\220\032\276\371g\t\276\350\306q=\267l\345=HE1\275~\231\346=\245\312\316=\233\325\336=a\252}\275\024)\313\274+\204\312\275\210\236\'\276F\'\267;-\027\235\275x[S\275\016\264\314=\340\221\362=\335\3771>\241\333\231<\226w\222\275R\227p\275$b8<^\345\360=\347\035E\275\364\000/\276\204\370\017>\305R_<\300\020\030\276\361]O=\236RR\274\263\267\234=L\347\375\274\023\'\024\2732\t#\2751\274Q\275\266\352\'\2748\201x\275\265\022\226\275\377y\254\274\353I8>\t\371\371<\014\347\313\275\317\316\364<Ou\365\27443\177\275\224\242\r\2750\004\t\275\350\241\034\275\022\251\024\276O\363\016>\312\314k\273<9.=\252\243\245\275Cs\217\275L\004\036=5zn\276\0236\242\275Z\326\250\275\032y\333\275\031\256\006>D\033,\275\'\262l\276s\227\310=#\316\366\275\031a\233>\240x\242:\3714\272\275\330\241\246= Wz=\342\250\215<\251\307\225:;\266\230\275\240\013\220\275\373\335!\274n\322\205\275{\251\365<)]9=$\211j\276\\\316[\275J\002\227=b\005+\2754\003 \275\366\313q=\335\265z=&I\233\274\001\217\251\275\270\337E=C0\213\275R\204\222\275f^\247\273R\340\034\275\346I\253\274<\340t\275\327\342\327\275\026V\007\276\216TI=+\\\200\275\337\020\017\275\343%\254\2753M\003=\021`\314\275\210wc=\030\246\231<\265\352\207<[\226M=L\255\'={\362\037\273\004\344\276\275\356[w=\355\360W\275\314\257\377\275\252}L<\363\267\223=W\014\r<\027\344\000>\232\342\034<+\003H>w\354\325\274^\276\203<\252\206\355\275\001\000\223=X\371\223=}^\261=@i\202\275\236p\260\275mQ&\272\256\231b\275-\375\205=\337\237`\274\334\351\017;k\342\\\2758\032\200\275_^\221\275L,\342\272`\262\030=\342\345\321\275\025S\364=\354.\020\275\310K\233=\034\220\353\274IS\312=X\335\317\274\276&\356<;T%=\270s\031=\342\350\334=X\256\033\276\310\014K\275\267\304S\276\324\235u<C\332\3019\022\213\236=\033\200\310\275\203\253\223=\010\300F>\017\236\003\275j\022c>\301\024O\274\003\000\232=\335\027\023\276\320\035D\275\306\023\333=\311\006\227\273\352\025\242\275]Q\252\273-8\250\275\212\316\357\275\3568\352\275\256\301\027\276\000\355]=keL>f\025\340=\030\266v=\035\251\341\274\243\304\010>\351.\324\274\307\250v<\241\265?=_\217\327\275B\350\310=\270\004z\274C\251\352< p\243=\025\242\020=\ng\207\275\243\265\306=,\221\334\274\316#\245=\212\253\253=y\251z;\370P\355<\322\364\n>\375\331\204=\344\377G\274\370oA\275\343\307\317<\005\'M>\332\364M\276\220\317S\275\305\231\276=\321\261\007<\362\354S\275\224\263|<1ws=\256\364\013=\265\210C=\365ik\275n\322O=S\244\364<\0305\214>!\325\357\275\362\t\357\275P\200\304;\326\351\331=d\r\250<f\206\327<\016\274\t=GB\337=\337\305\007=.M\"= v\021\276)\323\234=\374\332I=\311;\021>\256M?>\022\310\032\275!\201\335;p\022\013\275*!(\275\363\361\276=\002\231\000=\000\034\t=\354\031\277\275\r\341\266\273\354\211:\275\250\263~<\227\260\222\275\277\271\037\2768\345\220=q\225\200\275\221\243\303=\336w4=O2\343\273\017R\243=\357\273\271\275v\375\361=\242\232%>RZ\310\275\302e1;\002 |\275\324\275\220\274\311\231\370=\r@m\274\263\377T<l\377S=\241V\022>I\020\"=/0B\276 \333F=\261[\207;\242\311\004\275\255\270C\276\307\353\353\274b\314\325;\236\305:\275@)\006>\243\203\016\275\036c\305\275_\252\001\276)\333\356;8\037\213;u\3624\275/iT=\204\031\331\275i\316\262\275\0140\342=\\A\224\275\013\024\035>\217\201\240=F\342Z\275\355E\255\275\327\331l\275\305\010L>?c=\275\243?\030=u\004.\276R [\275\027\000\r\275^S\373\274\342\022\031=9py\275\307jj=(*\274=cV\032\2769T\353\275\330V\313<\032\271\302<\262\t\006\275j\304\326\275\247\010V=\365\313F>\" J\275-\357\347\274\177\014\010;\211\304\270=\223 r\274\317\326\237\275\352\013t\275\020\245\275= \014\241\274\347 9\275I-\031\276\366\370\262=b)\304<\371\221\301<\020\020F\275\301 \317\274~\334\253\275@0\350\274n^\226=\215G\344=5\025b=\333\\`=\033x\345\275y\253\216\275{\263V>\353\255*<\373\254\221\274\372N\330=\244\306\010\275\325,_=\002\240\341\274t\035y=\005z\003\276a\004\371=\355\032\006=\210H\206<A\215?</\"\216=\303\364\310\2757O\236\275\234\374\374<(/*\275\261-\330=\222\023\325\274\\}*=\335\272/\275\037+\372\275\000\342\334\275.\256\260\274\213\264\325=6uT\276\270\025\254<lF\377\274a\311\006\276\374\351i>\031\352r\275\305jP=\222,\302=\366x]\275\025\274[<\016(\277=\327C\301\275i<\301\275\316\305\274\275\345\205\342\275(R&\275\322\301S\276V\014\177=5\347\005\276\244\3630\276\342\274\271=\317\267\236\274\234\033n\275\215\207\326=9h\206<\311],\275\342\037\362\275\371\005><\234\327\020\275$\016\375= \347-\2755R\233=\231\332/\275x\366\240<\204\312\356=\366\361G=\010$\035>%E9\275\351\233X\275\034\321\252=&\240\374\275\362V\032=\277A\025=\304T\'>\177w\002\276\243uq\275\365:\334\275\265\325S\276\2765\341<\302\211\210\2743\206\235=,\364O=\221\320\215=\214\236\233\274<\356\020;\240\311\2409\202\211\342=j\342z\274\005n\010\2755\306\031\274/\200\006>k\343f\275\361\265K\274\274\332\006\275|\221\251=\364E\002=\220e\244=2\350\260\275\305\022\206<F\240W\275i\333P=\275l\271\275\346\325\214<\230\321\017>\227\310\031\276\357Z<=N_M=\'\372\017=f\215=>0\364\031\276#\277\261\275\317\037\365<<\363\267\275\007\303\t\275\242\204\360<U]\027<\2777\017\275\347%`>L\327>\275\327\301\264<g\277\201\274\311\337_\275"
      }
    }
  }
}
node {
  name: "lstm_1/recurrent_kernel"
  op: "VariableV2"
  attr {
    key: "container"
    value {
      s: ""
    }
  }
  attr {
    key: "dtype"
    value {
      type: DT_FLOAT
    }
  }
  attr {
    key: "shape"
    value {
      shape {
        dim {
          size: 32
        }
        dim {
          size: 128
        }
      }
    }
  }
  attr {
    key: "shared_name"
    value {
      s: ""
    }
  }
}
node {
  name: "lstm_1/recurrent_kernel/Assign"
  op: "Assign"
  input: "lstm_1/recurrent_kernel"
  input: "lstm_1/recurrent_kernel/initial_value"
  attr {
    key: "T"
    value {
      type: DT_FLOAT
    }
  }
  attr {
    key: "_class"
    value {
      list {
        s: "loc:@lstm_1/recurrent_kernel"
      }
    }
  }
  attr {
    key: "use_locking"
    value {
      b: true
    }
  }
  attr {
    key: "validate_shape"
    value {
      b: true
    }
  }
}
node {
  name: "lstm_1/recurrent_kernel/read"
  op: "Identity"
  input: "lstm_1/recurrent_kernel"
  attr {
    key: "T"
    value {
      type: DT_FLOAT
    }
  }
  attr {
    key: "_class"
    value {
      list {
        s: "loc:@lstm_1/recurrent_kernel"
      }
    }
  }
}
node {
  name: "lstm_1/Const"
  op: "Const"
  attr {
    key: "dtype"
    value {
      type: DT_FLOAT
    }
  }
  attr {
    key: "value"
    value {
      tensor {
        dtype: DT_FLOAT
        tensor_shape {
          dim {
            size: 32
          }
        }
        float_val: 0.0
      }
    }
  }
}
node {
  name: "lstm_1/Const_1"
  op: "Const"
  attr {
    key: "dtype"
    value {
      type: DT_FLOAT
    }
  }
  attr {
    key: "value"
    value {
      tensor {
        dtype: DT_FLOAT
        tensor_shape {
          dim {
            size: 32
          }
        }
        float_val: 1.0
      }
    }
  }
}
node {
  name: "lstm_1/Const_2"
  op: "Const"
  attr {
    key: "dtype"
    value {
      type: DT_FLOAT
    }
  }
  attr {
    key: "value"
    value {
      tensor {
        dtype: DT_FLOAT
        tensor_shape {
          dim {
            size: 64
          }
        }
        float_val: 0.0
      }
    }
  }
}
node {
  name: "lstm_1/concat/axis"
  op: "Const"
  attr {
    key: "dtype"
    value {
      type: DT_INT32
    }
  }
  attr {
    key: "value"
    value {
      tensor {
        dtype: DT_INT32
        tensor_shape {
        }
        int_val: 0
      }
    }
  }
}
node {
  name: "lstm_1/concat"
  op: "ConcatV2"
  input: "lstm_1/Const"
  input: "lstm_1/Const_1"
  input: "lstm_1/Const_2"
  input: "lstm_1/concat/axis"
  attr {
    key: "N"
    value {
      i: 3
    }
  }
  attr {
    key: "T"
    value {
      type: DT_FLOAT
    }
  }
  attr {
    key: "Tidx"
    value {
      type: DT_INT32
    }
  }
}
node {
  name: "lstm_1/bias"
  op: "VariableV2"
  attr {
    key: "container"
    value {
      s: ""
    }
  }
  attr {
    key: "dtype"
    value {
      type: DT_FLOAT
    }
  }
  attr {
    key: "shape"
    value {
      shape {
        dim {
          size: 128
        }
      }
    }
  }
  attr {
    key: "shared_name"
    value {
      s: ""
    }
  }
}
node {
  name: "lstm_1/bias/Assign"
  op: "Assign"
  input: "lstm_1/bias"
  input: "lstm_1/concat"
  attr {
    key: "T"
    value {
      type: DT_FLOAT
    }
  }
  attr {
    key: "_class"
    value {
      list {
        s: "loc:@lstm_1/bias"
      }
    }
  }
  attr {
    key: "use_locking"
    value {
      b: true
    }
  }
  attr {
    key: "validate_shape"
    value {
      b: true
    }
  }
}
node {
  name: "lstm_1/bias/read"
  op: "Identity"
  input: "lstm_1/bias"
  attr {
    key: "T"
    value {
      type: DT_FLOAT
    }
  }
  attr {
    key: "_class"
    value {
      list {
        s: "loc:@lstm_1/bias"
      }
    }
  }
}
node {
  name: "lstm_1/weight_regularizer_1/Square"
  op: "Square"
  input: "lstm_1/bias/read"
  attr {
    key: "T"
    value {
      type: DT_FLOAT
    }
  }
}
node {
  name: "lstm_1/weight_regularizer_1/mul/x"
  op: "Const"
  attr {
    key: "dtype"
    value {
      type: DT_FLOAT
    }
  }
  attr {
    key: "value"
    value {
      tensor {
        dtype: DT_FLOAT
        tensor_shape {
        }
        float_val: 1e-06
      }
    }
  }
}
node {
  name: "lstm_1/weight_regularizer_1/mul"
  op: "Mul"
  input: "lstm_1/weight_regularizer_1/mul/x"
  input: "lstm_1/weight_regularizer_1/Square"
  attr {
    key: "T"
    value {
      type: DT_FLOAT
    }
  }
}
node {
  name: "lstm_1/weight_regularizer_1/Const"
  op: "Const"
  attr {
    key: "dtype"
    value {
      type: DT_INT32
    }
  }
  attr {
    key: "value"
    value {
      tensor {
        dtype: DT_INT32
        tensor_shape {
          dim {
            size: 1
          }
        }
        int_val: 0
      }
    }
  }
}
node {
  name: "lstm_1/weight_regularizer_1/Sum"
  op: "Sum"
  input: "lstm_1/weight_regularizer_1/mul"
  input: "lstm_1/weight_regularizer_1/Const"
  attr {
    key: "T"
    value {
      type: DT_FLOAT
    }
  }
  attr {
    key: "Tidx"
    value {
      type: DT_INT32
    }
  }
  attr {
    key: "keep_dims"
    value {
      b: false
    }
  }
}
node {
  name: "lstm_1/weight_regularizer_1/add/x"
  op: "Const"
  attr {
    key: "dtype"
    value {
      type: DT_FLOAT
    }
  }
  attr {
    key: "value"
    value {
      tensor {
        dtype: DT_FLOAT
        tensor_shape {
        }
        float_val: 0.0
      }
    }
  }
}
node {
  name: "lstm_1/weight_regularizer_1/add"
  op: "Add"
  input: "lstm_1/weight_regularizer_1/add/x"
  input: "lstm_1/weight_regularizer_1/Sum"
  attr {
    key: "T"
    value {
      type: DT_FLOAT
    }
  }
}
node {
  name: "lstm_1/strided_slice/stack"
  op: "Const"
  attr {
    key: "dtype"
    value {
      type: DT_INT32
    }
  }
  attr {
    key: "value"
    value {
      tensor {
        dtype: DT_INT32
        tensor_shape {
          dim {
            size: 2
          }
        }
        tensor_content: "\000\000\000\000\000\000\000\000"
      }
    }
  }
}
node {
  name: "lstm_1/strided_slice/stack_1"
  op: "Const"
  attr {
    key: "dtype"
    value {
      type: DT_INT32
    }
  }
  attr {
    key: "value"
    value {
      tensor {
        dtype: DT_INT32
        tensor_shape {
          dim {
            size: 2
          }
        }
        tensor_content: "\000\000\000\000 \000\000\000"
      }
    }
  }
}
node {
  name: "lstm_1/strided_slice/stack_2"
  op: "Const"
  attr {
    key: "dtype"
    value {
      type: DT_INT32
    }
  }
  attr {
    key: "value"
    value {
      tensor {
        dtype: DT_INT32
        tensor_shape {
          dim {
            size: 2
          }
        }
        tensor_content: "\001\000\000\000\001\000\000\000"
      }
    }
  }
}
node {
  name: "lstm_1/strided_slice"
  op: "StridedSlice"
  input: "lstm_1/kernel/read"
  input: "lstm_1/strided_slice/stack"
  input: "lstm_1/strided_slice/stack_1"
  input: "lstm_1/strided_slice/stack_2"
  attr {
    key: "Index"
    value {
      type: DT_INT32
    }
  }
  attr {
    key: "T"
    value {
      type: DT_FLOAT
    }
  }
  attr {
    key: "begin_mask"
    value {
      i: 3
    }
  }
  attr {
    key: "ellipsis_mask"
    value {
      i: 0
    }
  }
  attr {
    key: "end_mask"
    value {
      i: 1
    }
  }
  attr {
    key: "new_axis_mask"
    value {
      i: 0
    }
  }
  attr {
    key: "shrink_axis_mask"
    value {
      i: 0
    }
  }
}
node {
  name: "lstm_1/strided_slice_1/stack"
  op: "Const"
  attr {
    key: "dtype"
    value {
      type: DT_INT32
    }
  }
  attr {
    key: "value"
    value {
      tensor {
        dtype: DT_INT32
        tensor_shape {
          dim {
            size: 2
          }
        }
        tensor_content: "\000\000\000\000 \000\000\000"
      }
    }
  }
}
node {
  name: "lstm_1/strided_slice_1/stack_1"
  op: "Const"
  attr {
    key: "dtype"
    value {
      type: DT_INT32
    }
  }
  attr {
    key: "value"
    value {
      tensor {
        dtype: DT_INT32
        tensor_shape {
          dim {
            size: 2
          }
        }
        tensor_content: "\000\000\000\000@\000\000\000"
      }
    }
  }
}
node {
  name: "lstm_1/strided_slice_1/stack_2"
  op: "Const"
  attr {
    key: "dtype"
    value {
      type: DT_INT32
    }
  }
  attr {
    key: "value"
    value {
      tensor {
        dtype: DT_INT32
        tensor_shape {
          dim {
            size: 2
          }
        }
        tensor_content: "\001\000\000\000\001\000\000\000"
      }
    }
  }
}
node {
  name: "lstm_1/strided_slice_1"
  op: "StridedSlice"
  input: "lstm_1/kernel/read"
  input: "lstm_1/strided_slice_1/stack"
  input: "lstm_1/strided_slice_1/stack_1"
  input: "lstm_1/strided_slice_1/stack_2"
  attr {
    key: "Index"
    value {
      type: DT_INT32
    }
  }
  attr {
    key: "T"
    value {
      type: DT_FLOAT
    }
  }
  attr {
    key: "begin_mask"
    value {
      i: 1
    }
  }
  attr {
    key: "ellipsis_mask"
    value {
      i: 0
    }
  }
  attr {
    key: "end_mask"
    value {
      i: 1
    }
  }
  attr {
    key: "new_axis_mask"
    value {
      i: 0
    }
  }
  attr {
    key: "shrink_axis_mask"
    value {
      i: 0
    }
  }
}
node {
  name: "lstm_1/strided_slice_2/stack"
  op: "Const"
  attr {
    key: "dtype"
    value {
      type: DT_INT32
    }
  }
  attr {
    key: "value"
    value {
      tensor {
        dtype: DT_INT32
        tensor_shape {
          dim {
            size: 2
          }
        }
        tensor_content: "\000\000\000\000@\000\000\000"
      }
    }
  }
}
node {
  name: "lstm_1/strided_slice_2/stack_1"
  op: "Const"
  attr {
    key: "dtype"
    value {
      type: DT_INT32
    }
  }
  attr {
    key: "value"
    value {
      tensor {
        dtype: DT_INT32
        tensor_shape {
          dim {
            size: 2
          }
        }
        tensor_content: "\000\000\000\000`\000\000\000"
      }
    }
  }
}
node {
  name: "lstm_1/strided_slice_2/stack_2"
  op: "Const"
  attr {
    key: "dtype"
    value {
      type: DT_INT32
    }
  }
  attr {
    key: "value"
    value {
      tensor {
        dtype: DT_INT32
        tensor_shape {
          dim {
            size: 2
          }
        }
        tensor_content: "\001\000\000\000\001\000\000\000"
      }
    }
  }
}
node {
  name: "lstm_1/strided_slice_2"
  op: "StridedSlice"
  input: "lstm_1/kernel/read"
  input: "lstm_1/strided_slice_2/stack"
  input: "lstm_1/strided_slice_2/stack_1"
  input: "lstm_1/strided_slice_2/stack_2"
  attr {
    key: "Index"
    value {
      type: DT_INT32
    }
  }
  attr {
    key: "T"
    value {
      type: DT_FLOAT
    }
  }
  attr {
    key: "begin_mask"
    value {
      i: 1
    }
  }
  attr {
    key: "ellipsis_mask"
    value {
      i: 0
    }
  }
  attr {
    key: "end_mask"
    value {
      i: 1
    }
  }
  attr {
    key: "new_axis_mask"
    value {
      i: 0
    }
  }
  attr {
    key: "shrink_axis_mask"
    value {
      i: 0
    }
  }
}
node {
  name: "lstm_1/strided_slice_3/stack"
  op: "Const"
  attr {
    key: "dtype"
    value {
      type: DT_INT32
    }
  }
  attr {
    key: "value"
    value {
      tensor {
        dtype: DT_INT32
        tensor_shape {
          dim {
            size: 2
          }
        }
        tensor_content: "\000\000\000\000`\000\000\000"
      }
    }
  }
}
node {
  name: "lstm_1/strided_slice_3/stack_1"
  op: "Const"
  attr {
    key: "dtype"
    value {
      type: DT_INT32
    }
  }
  attr {
    key: "value"
    value {
      tensor {
        dtype: DT_INT32
        tensor_shape {
          dim {
            size: 2
          }
        }
        tensor_content: "\000\000\000\000\000\000\000\000"
      }
    }
  }
}
node {
  name: "lstm_1/strided_slice_3/stack_2"
  op: "Const"
  attr {
    key: "dtype"
    value {
      type: DT_INT32
    }
  }
  attr {
    key: "value"
    value {
      tensor {
        dtype: DT_INT32
        tensor_shape {
          dim {
            size: 2
          }
        }
        tensor_content: "\001\000\000\000\001\000\000\000"
      }
    }
  }
}
node {
  name: "lstm_1/strided_slice_3"
  op: "StridedSlice"
  input: "lstm_1/kernel/read"
  input: "lstm_1/strided_slice_3/stack"
  input: "lstm_1/strided_slice_3/stack_1"
  input: "lstm_1/strided_slice_3/stack_2"
  attr {
    key: "Index"
    value {
      type: DT_INT32
    }
  }
  attr {
    key: "T"
    value {
      type: DT_FLOAT
    }
  }
  attr {
    key: "begin_mask"
    value {
      i: 1
    }
  }
  attr {
    key: "ellipsis_mask"
    value {
      i: 0
    }
  }
  attr {
    key: "end_mask"
    value {
      i: 3
    }
  }
  attr {
    key: "new_axis_mask"
    value {
      i: 0
    }
  }
  attr {
    key: "shrink_axis_mask"
    value {
      i: 0
    }
  }
}
node {
  name: "lstm_1/strided_slice_4/stack"
  op: "Const"
  attr {
    key: "dtype"
    value {
      type: DT_INT32
    }
  }
  attr {
    key: "value"
    value {
      tensor {
        dtype: DT_INT32
        tensor_shape {
          dim {
            size: 2
          }
        }
        tensor_content: "\000\000\000\000\000\000\000\000"
      }
    }
  }
}
node {
  name: "lstm_1/strided_slice_4/stack_1"
  op: "Const"
  attr {
    key: "dtype"
    value {
      type: DT_INT32
    }
  }
  attr {
    key: "value"
    value {
      tensor {
        dtype: DT_INT32
        tensor_shape {
          dim {
            size: 2
          }
        }
        tensor_content: "\000\000\000\000 \000\000\000"
      }
    }
  }
}
node {
  name: "lstm_1/strided_slice_4/stack_2"
  op: "Const"
  attr {
    key: "dtype"
    value {
      type: DT_INT32
    }
  }
  attr {
    key: "value"
    value {
      tensor {
        dtype: DT_INT32
        tensor_shape {
          dim {
            size: 2
          }
        }
        tensor_content: "\001\000\000\000\001\000\000\000"
      }
    }
  }
}
node {
  name: "lstm_1/strided_slice_4"
  op: "StridedSlice"
  input: "lstm_1/recurrent_kernel/read"
  input: "lstm_1/strided_slice_4/stack"
  input: "lstm_1/strided_slice_4/stack_1"
  input: "lstm_1/strided_slice_4/stack_2"
  attr {
    key: "Index"
    value {
      type: DT_INT32
    }
  }
  attr {
    key: "T"
    value {
      type: DT_FLOAT
    }
  }
  attr {
    key: "begin_mask"
    value {
      i: 3
    }
  }
  attr {
    key: "ellipsis_mask"
    value {
      i: 0
    }
  }
  attr {
    key: "end_mask"
    value {
      i: 1
    }
  }
  attr {
    key: "new_axis_mask"
    value {
      i: 0
    }
  }
  attr {
    key: "shrink_axis_mask"
    value {
      i: 0
    }
  }
}
node {
  name: "lstm_1/strided_slice_5/stack"
  op: "Const"
  attr {
    key: "dtype"
    value {
      type: DT_INT32
    }
  }
  attr {
    key: "value"
    value {
      tensor {
        dtype: DT_INT32
        tensor_shape {
          dim {
            size: 2
          }
        }
        tensor_content: "\000\000\000\000 \000\000\000"
      }
    }
  }
}
node {
  name: "lstm_1/strided_slice_5/stack_1"
  op: "Const"
  attr {
    key: "dtype"
    value {
      type: DT_INT32
    }
  }
  attr {
    key: "value"
    value {
      tensor {
        dtype: DT_INT32
        tensor_shape {
          dim {
            size: 2
          }
        }
        tensor_content: "\000\000\000\000@\000\000\000"
      }
    }
  }
}
node {
  name: "lstm_1/strided_slice_5/stack_2"
  op: "Const"
  attr {
    key: "dtype"
    value {
      type: DT_INT32
    }
  }
  attr {
    key: "value"
    value {
      tensor {
        dtype: DT_INT32
        tensor_shape {
          dim {
            size: 2
          }
        }
        tensor_content: "\001\000\000\000\001\000\000\000"
      }
    }
  }
}
node {
  name: "lstm_1/strided_slice_5"
  op: "StridedSlice"
  input: "lstm_1/recurrent_kernel/read"
  input: "lstm_1/strided_slice_5/stack"
  input: "lstm_1/strided_slice_5/stack_1"
  input: "lstm_1/strided_slice_5/stack_2"
  attr {
    key: "Index"
    value {
      type: DT_INT32
    }
  }
  attr {
    key: "T"
    value {
      type: DT_FLOAT
    }
  }
  attr {
    key: "begin_mask"
    value {
      i: 1
    }
  }
  attr {
    key: "ellipsis_mask"
    value {
      i: 0
    }
  }
  attr {
    key: "end_mask"
    value {
      i: 1
    }
  }
  attr {
    key: "new_axis_mask"
    value {
      i: 0
    }
  }
  attr {
    key: "shrink_axis_mask"
    value {
      i: 0
    }
  }
}
node {
  name: "lstm_1/strided_slice_6/stack"
  op: "Const"
  attr {
    key: "dtype"
    value {
      type: DT_INT32
    }
  }
  attr {
    key: "value"
    value {
      tensor {
        dtype: DT_INT32
        tensor_shape {
          dim {
            size: 2
          }
        }
        tensor_content: "\000\000\000\000@\000\000\000"
      }
    }
  }
}
node {
  name: "lstm_1/strided_slice_6/stack_1"
  op: "Const"
  attr {
    key: "dtype"
    value {
      type: DT_INT32
    }
  }
  attr {
    key: "value"
    value {
      tensor {
        dtype: DT_INT32
        tensor_shape {
          dim {
            size: 2
          }
        }
        tensor_content: "\000\000\000\000`\000\000\000"
      }
    }
  }
}
node {
  name: "lstm_1/strided_slice_6/stack_2"
  op: "Const"
  attr {
    key: "dtype"
    value {
      type: DT_INT32
    }
  }
  attr {
    key: "value"
    value {
      tensor {
        dtype: DT_INT32
        tensor_shape {
          dim {
            size: 2
          }
        }
        tensor_content: "\001\000\000\000\001\000\000\000"
      }
    }
  }
}
node {
  name: "lstm_1/strided_slice_6"
  op: "StridedSlice"
  input: "lstm_1/recurrent_kernel/read"
  input: "lstm_1/strided_slice_6/stack"
  input: "lstm_1/strided_slice_6/stack_1"
  input: "lstm_1/strided_slice_6/stack_2"
  attr {
    key: "Index"
    value {
      type: DT_INT32
    }
  }
  attr {
    key: "T"
    value {
      type: DT_FLOAT
    }
  }
  attr {
    key: "begin_mask"
    value {
      i: 1
    }
  }
  attr {
    key: "ellipsis_mask"
    value {
      i: 0
    }
  }
  attr {
    key: "end_mask"
    value {
      i: 1
    }
  }
  attr {
    key: "new_axis_mask"
    value {
      i: 0
    }
  }
  attr {
    key: "shrink_axis_mask"
    value {
      i: 0
    }
  }
}
node {
  name: "lstm_1/strided_slice_7/stack"
  op: "Const"
  attr {
    key: "dtype"
    value {
      type: DT_INT32
    }
  }
  attr {
    key: "value"
    value {
      tensor {
        dtype: DT_INT32
        tensor_shape {
          dim {
            size: 2
          }
        }
        tensor_content: "\000\000\000\000`\000\000\000"
      }
    }
  }
}
node {
  name: "lstm_1/strided_slice_7/stack_1"
  op: "Const"
  attr {
    key: "dtype"
    value {
      type: DT_INT32
    }
  }
  attr {
    key: "value"
    value {
      tensor {
        dtype: DT_INT32
        tensor_shape {
          dim {
            size: 2
          }
        }
        tensor_content: "\000\000\000\000\000\000\000\000"
      }
    }
  }
}
node {
  name: "lstm_1/strided_slice_7/stack_2"
  op: "Const"
  attr {
    key: "dtype"
    value {
      type: DT_INT32
    }
  }
  attr {
    key: "value"
    value {
      tensor {
        dtype: DT_INT32
        tensor_shape {
          dim {
            size: 2
          }
        }
        tensor_content: "\001\000\000\000\001\000\000\000"
      }
    }
  }
}
node {
  name: "lstm_1/strided_slice_7"
  op: "StridedSlice"
  input: "lstm_1/recurrent_kernel/read"
  input: "lstm_1/strided_slice_7/stack"
  input: "lstm_1/strided_slice_7/stack_1"
  input: "lstm_1/strided_slice_7/stack_2"
  attr {
    key: "Index"
    value {
      type: DT_INT32
    }
  }
  attr {
    key: "T"
    value {
      type: DT_FLOAT
    }
  }
  attr {
    key: "begin_mask"
    value {
      i: 1
    }
  }
  attr {
    key: "ellipsis_mask"
    value {
      i: 0
    }
  }
  attr {
    key: "end_mask"
    value {
      i: 3
    }
  }
  attr {
    key: "new_axis_mask"
    value {
      i: 0
    }
  }
  attr {
    key: "shrink_axis_mask"
    value {
      i: 0
    }
  }
}
node {
  name: "lstm_1/strided_slice_8/stack"
  op: "Const"
  attr {
    key: "dtype"
    value {
      type: DT_INT32
    }
  }
  attr {
    key: "value"
    value {
      tensor {
        dtype: DT_INT32
        tensor_shape {
          dim {
            size: 1
          }
        }
        int_val: 0
      }
    }
  }
}
node {
  name: "lstm_1/strided_slice_8/stack_1"
  op: "Const"
  attr {
    key: "dtype"
    value {
      type: DT_INT32
    }
  }
  attr {
    key: "value"
    value {
      tensor {
        dtype: DT_INT32
        tensor_shape {
          dim {
            size: 1
          }
        }
        int_val: 32
      }
    }
  }
}
node {
  name: "lstm_1/strided_slice_8/stack_2"
  op: "Const"
  attr {
    key: "dtype"
    value {
      type: DT_INT32
    }
  }
  attr {
    key: "value"
    value {
      tensor {
        dtype: DT_INT32
        tensor_shape {
          dim {
            size: 1
          }
        }
        int_val: 1
      }
    }
  }
}
node {
  name: "lstm_1/strided_slice_8"
  op: "StridedSlice"
  input: "lstm_1/bias/read"
  input: "lstm_1/strided_slice_8/stack"
  input: "lstm_1/strided_slice_8/stack_1"
  input: "lstm_1/strided_slice_8/stack_2"
  attr {
    key: "Index"
    value {
      type: DT_INT32
    }
  }
  attr {
    key: "T"
    value {
      type: DT_FLOAT
    }
  }
  attr {
    key: "begin_mask"
    value {
      i: 1
    }
  }
  attr {
    key: "ellipsis_mask"
    value {
      i: 0
    }
  }
  attr {
    key: "end_mask"
    value {
      i: 0
    }
  }
  attr {
    key: "new_axis_mask"
    value {
      i: 0
    }
  }
  attr {
    key: "shrink_axis_mask"
    value {
      i: 0
    }
  }
}
node {
  name: "lstm_1/strided_slice_9/stack"
  op: "Const"
  attr {
    key: "dtype"
    value {
      type: DT_INT32
    }
  }
  attr {
    key: "value"
    value {
      tensor {
        dtype: DT_INT32
        tensor_shape {
          dim {
            size: 1
          }
        }
        int_val: 32
      }
    }
  }
}
node {
  name: "lstm_1/strided_slice_9/stack_1"
  op: "Const"
  attr {
    key: "dtype"
    value {
      type: DT_INT32
    }
  }
  attr {
    key: "value"
    value {
      tensor {
        dtype: DT_INT32
        tensor_shape {
          dim {
            size: 1
          }
        }
        int_val: 64
      }
    }
  }
}
node {
  name: "lstm_1/strided_slice_9/stack_2"
  op: "Const"
  attr {
    key: "dtype"
    value {
      type: DT_INT32
    }
  }
  attr {
    key: "value"
    value {
      tensor {
        dtype: DT_INT32
        tensor_shape {
          dim {
            size: 1
          }
        }
        int_val: 1
      }
    }
  }
}
node {
  name: "lstm_1/strided_slice_9"
  op: "StridedSlice"
  input: "lstm_1/bias/read"
  input: "lstm_1/strided_slice_9/stack"
  input: "lstm_1/strided_slice_9/stack_1"
  input: "lstm_1/strided_slice_9/stack_2"
  attr {
    key: "Index"
    value {
      type: DT_INT32
    }
  }
  attr {
    key: "T"
    value {
      type: DT_FLOAT
    }
  }
  attr {
    key: "begin_mask"
    value {
      i: 0
    }
  }
  attr {
    key: "ellipsis_mask"
    value {
      i: 0
    }
  }
  attr {
    key: "end_mask"
    value {
      i: 0
    }
  }
  attr {
    key: "new_axis_mask"
    value {
      i: 0
    }
  }
  attr {
    key: "shrink_axis_mask"
    value {
      i: 0
    }
  }
}
node {
  name: "lstm_1/strided_slice_10/stack"
  op: "Const"
  attr {
    key: "dtype"
    value {
      type: DT_INT32
    }
  }
  attr {
    key: "value"
    value {
      tensor {
        dtype: DT_INT32
        tensor_shape {
          dim {
            size: 1
          }
        }
        int_val: 64
      }
    }
  }
}
node {
  name: "lstm_1/strided_slice_10/stack_1"
  op: "Const"
  attr {
    key: "dtype"
    value {
      type: DT_INT32
    }
  }
  attr {
    key: "value"
    value {
      tensor {
        dtype: DT_INT32
        tensor_shape {
          dim {
            size: 1
          }
        }
        int_val: 96
      }
    }
  }
}
node {
  name: "lstm_1/strided_slice_10/stack_2"
  op: "Const"
  attr {
    key: "dtype"
    value {
      type: DT_INT32
    }
  }
  attr {
    key: "value"
    value {
      tensor {
        dtype: DT_INT32
        tensor_shape {
          dim {
            size: 1
          }
        }
        int_val: 1
      }
    }
  }
}
node {
  name: "lstm_1/strided_slice_10"
  op: "StridedSlice"
  input: "lstm_1/bias/read"
  input: "lstm_1/strided_slice_10/stack"
  input: "lstm_1/strided_slice_10/stack_1"
  input: "lstm_1/strided_slice_10/stack_2"
  attr {
    key: "Index"
    value {
      type: DT_INT32
    }
  }
  attr {
    key: "T"
    value {
      type: DT_FLOAT
    }
  }
  attr {
    key: "begin_mask"
    value {
      i: 0
    }
  }
  attr {
    key: "ellipsis_mask"
    value {
      i: 0
    }
  }
  attr {
    key: "end_mask"
    value {
      i: 0
    }
  }
  attr {
    key: "new_axis_mask"
    value {
      i: 0
    }
  }
  attr {
    key: "shrink_axis_mask"
    value {
      i: 0
    }
  }
}
node {
  name: "lstm_1/strided_slice_11/stack"
  op: "Const"
  attr {
    key: "dtype"
    value {
      type: DT_INT32
    }
  }
  attr {
    key: "value"
    value {
      tensor {
        dtype: DT_INT32
        tensor_shape {
          dim {
            size: 1
          }
        }
        int_val: 96
      }
    }
  }
}
node {
  name: "lstm_1/strided_slice_11/stack_1"
  op: "Const"
  attr {
    key: "dtype"
    value {
      type: DT_INT32
    }
  }
  attr {
    key: "value"
    value {
      tensor {
        dtype: DT_INT32
        tensor_shape {
          dim {
            size: 1
          }
        }
        int_val: 0
      }
    }
  }
}
node {
  name: "lstm_1/strided_slice_11/stack_2"
  op: "Const"
  attr {
    key: "dtype"
    value {
      type: DT_INT32
    }
  }
  attr {
    key: "value"
    value {
      tensor {
        dtype: DT_INT32
        tensor_shape {
          dim {
            size: 1
          }
        }
        int_val: 1
      }
    }
  }
}
node {
  name: "lstm_1/strided_slice_11"
  op: "StridedSlice"
  input: "lstm_1/bias/read"
  input: "lstm_1/strided_slice_11/stack"
  input: "lstm_1/strided_slice_11/stack_1"
  input: "lstm_1/strided_slice_11/stack_2"
  attr {
    key: "Index"
    value {
      type: DT_INT32
    }
  }
  attr {
    key: "T"
    value {
      type: DT_FLOAT
    }
  }
  attr {
    key: "begin_mask"
    value {
      i: 0
    }
  }
  attr {
    key: "ellipsis_mask"
    value {
      i: 0
    }
  }
  attr {
    key: "end_mask"
    value {
      i: 1
    }
  }
  attr {
    key: "new_axis_mask"
    value {
      i: 0
    }
  }
  attr {
    key: "shrink_axis_mask"
    value {
      i: 0
    }
  }
}
node {
  name: "lstm_1/zeros_like"
  op: "ZerosLike"
  input: "lstm_1_input"
  attr {
    key: "T"
    value {
      type: DT_FLOAT
    }
  }
}
node {
  name: "lstm_1/Sum/reduction_indices"
  op: "Const"
  attr {
    key: "dtype"
    value {
      type: DT_INT32
    }
  }
  attr {
    key: "value"
    value {
      tensor {
        dtype: DT_INT32
        tensor_shape {
          dim {
            size: 2
          }
        }
        tensor_content: "\001\000\000\000\002\000\000\000"
      }
    }
  }
}
node {
  name: "lstm_1/Sum"
  op: "Sum"
  input: "lstm_1/zeros_like"
  input: "lstm_1/Sum/reduction_indices"
  attr {
    key: "T"
    value {
      type: DT_FLOAT
    }
  }
  attr {
    key: "Tidx"
    value {
      type: DT_INT32
    }
  }
  attr {
    key: "keep_dims"
    value {
      b: false
    }
  }
}
node {
  name: "lstm_1/ExpandDims/dim"
  op: "Const"
  attr {
    key: "dtype"
    value {
      type: DT_INT32
    }
  }
  attr {
    key: "value"
    value {
      tensor {
        dtype: DT_INT32
        tensor_shape {
        }
        int_val: -1
      }
    }
  }
}
node {
  name: "lstm_1/ExpandDims"
  op: "ExpandDims"
  input: "lstm_1/Sum"
  input: "lstm_1/ExpandDims/dim"
  attr {
    key: "T"
    value {
      type: DT_FLOAT
    }
  }
  attr {
    key: "Tdim"
    value {
      type: DT_INT32
    }
  }
}
node {
  name: "lstm_1/Tile/multiples"
  op: "Const"
  attr {
    key: "dtype"
    value {
      type: DT_INT32
    }
  }
  attr {
    key: "value"
    value {
      tensor {
        dtype: DT_INT32
        tensor_shape {
          dim {
            size: 2
          }
        }
        tensor_content: "\001\000\000\000 \000\000\000"
      }
    }
  }
}
node {
  name: "lstm_1/Tile"
  op: "Tile"
  input: "lstm_1/ExpandDims"
  input: "lstm_1/Tile/multiples"
  attr {
    key: "T"
    value {
      type: DT_FLOAT
    }
  }
  attr {
    key: "Tmultiples"
    value {
      type: DT_INT32
    }
  }
}
node {
  name: "lstm_1/Tile_1/multiples"
  op: "Const"
  attr {
    key: "dtype"
    value {
      type: DT_INT32
    }
  }
  attr {
    key: "value"
    value {
      tensor {
        dtype: DT_INT32
        tensor_shape {
          dim {
            size: 2
          }
        }
        tensor_content: "\001\000\000\000 \000\000\000"
      }
    }
  }
}
node {
  name: "lstm_1/Tile_1"
  op: "Tile"
  input: "lstm_1/ExpandDims"
  input: "lstm_1/Tile_1/multiples"
  attr {
    key: "T"
    value {
      type: DT_FLOAT
    }
  }
  attr {
    key: "Tmultiples"
    value {
      type: DT_INT32
    }
  }
}
node {
  name: "lstm_1/transpose/perm"
  op: "Const"
  attr {
    key: "dtype"
    value {
      type: DT_INT32
    }
  }
  attr {
    key: "value"
    value {
      tensor {
        dtype: DT_INT32
        tensor_shape {
          dim {
            size: 3
          }
        }
        tensor_content: "\001\000\000\000\000\000\000\000\002\000\000\000"
      }
    }
  }
}
node {
  name: "lstm_1/transpose"
  op: "Transpose"
  input: "lstm_1_input"
  input: "lstm_1/transpose/perm"
  attr {
    key: "T"
    value {
      type: DT_FLOAT
    }
  }
  attr {
    key: "Tperm"
    value {
      type: DT_INT32
    }
  }
}
node {
  name: "lstm_1/Shape"
  op: "Shape"
  input: "lstm_1/transpose"
  attr {
    key: "T"
    value {
      type: DT_FLOAT
    }
  }
  attr {
    key: "out_type"
    value {
      type: DT_INT32
    }
  }
}
node {
  name: "lstm_1/strided_slice_12/stack"
  op: "Const"
  attr {
    key: "dtype"
    value {
      type: DT_INT32
    }
  }
  attr {
    key: "value"
    value {
      tensor {
        dtype: DT_INT32
        tensor_shape {
          dim {
            size: 1
          }
        }
        int_val: 0
      }
    }
  }
}
node {
  name: "lstm_1/strided_slice_12/stack_1"
  op: "Const"
  attr {
    key: "dtype"
    value {
      type: DT_INT32
    }
  }
  attr {
    key: "value"
    value {
      tensor {
        dtype: DT_INT32
        tensor_shape {
          dim {
            size: 1
          }
        }
        int_val: 1
      }
    }
  }
}
node {
  name: "lstm_1/strided_slice_12/stack_2"
  op: "Const"
  attr {
    key: "dtype"
    value {
      type: DT_INT32
    }
  }
  attr {
    key: "value"
    value {
      tensor {
        dtype: DT_INT32
        tensor_shape {
          dim {
            size: 1
          }
        }
        int_val: 1
      }
    }
  }
}
node {
  name: "lstm_1/strided_slice_12"
  op: "StridedSlice"
  input: "lstm_1/Shape"
  input: "lstm_1/strided_slice_12/stack"
  input: "lstm_1/strided_slice_12/stack_1"
  input: "lstm_1/strided_slice_12/stack_2"
  attr {
    key: "Index"
    value {
      type: DT_INT32
    }
  }
  attr {
    key: "T"
    value {
      type: DT_INT32
    }
  }
  attr {
    key: "begin_mask"
    value {
      i: 0
    }
  }
  attr {
    key: "ellipsis_mask"
    value {
      i: 0
    }
  }
  attr {
    key: "end_mask"
    value {
      i: 0
    }
  }
  attr {
    key: "new_axis_mask"
    value {
      i: 0
    }
  }
  attr {
    key: "shrink_axis_mask"
    value {
      i: 1
    }
  }
}
node {
  name: "lstm_1/strided_slice_13/stack"
  op: "Const"
  attr {
    key: "dtype"
    value {
      type: DT_INT32
    }
  }
  attr {
    key: "value"
    value {
      tensor {
        dtype: DT_INT32
        tensor_shape {
          dim {
            size: 1
          }
        }
        int_val: 0
      }
    }
  }
}
node {
  name: "lstm_1/strided_slice_13/stack_1"
  op: "Const"
  attr {
    key: "dtype"
    value {
      type: DT_INT32
    }
  }
  attr {
    key: "value"
    value {
      tensor {
        dtype: DT_INT32
        tensor_shape {
          dim {
            size: 1
          }
        }
        int_val: 1
      }
    }
  }
}
node {
  name: "lstm_1/strided_slice_13/stack_2"
  op: "Const"
  attr {
    key: "dtype"
    value {
      type: DT_INT32
    }
  }
  attr {
    key: "value"
    value {
      tensor {
        dtype: DT_INT32
        tensor_shape {
          dim {
            size: 1
          }
        }
        int_val: 1
      }
    }
  }
}
node {
  name: "lstm_1/strided_slice_13"
  op: "StridedSlice"
  input: "lstm_1/transpose"
  input: "lstm_1/strided_slice_13/stack"
  input: "lstm_1/strided_slice_13/stack_1"
  input: "lstm_1/strided_slice_13/stack_2"
  attr {
    key: "Index"
    value {
      type: DT_INT32
    }
  }
  attr {
    key: "T"
    value {
      type: DT_FLOAT
    }
  }
  attr {
    key: "begin_mask"
    value {
      i: 0
    }
  }
  attr {
    key: "ellipsis_mask"
    value {
      i: 0
    }
  }
  attr {
    key: "end_mask"
    value {
      i: 0
    }
  }
  attr {
    key: "new_axis_mask"
    value {
      i: 0
    }
  }
  attr {
    key: "shrink_axis_mask"
    value {
      i: 1
    }
  }
}
node {
  name: "lstm_1/MatMul"
  op: "MatMul"
  input: "lstm_1/strided_slice_13"
  input: "lstm_1/strided_slice"
  attr {
    key: "T"
    value {
      type: DT_FLOAT
    }
  }
  attr {
    key: "transpose_a"
    value {
      b: false
    }
  }
  attr {
    key: "transpose_b"
    value {
      b: false
    }
  }
}
node {
  name: "lstm_1/MatMul_1"
  op: "MatMul"
  input: "lstm_1/strided_slice_13"
  input: "lstm_1/strided_slice_1"
  attr {
    key: "T"
    value {
      type: DT_FLOAT
    }
  }
  attr {
    key: "transpose_a"
    value {
      b: false
    }
  }
  attr {
    key: "transpose_b"
    value {
      b: false
    }
  }
}
node {
  name: "lstm_1/MatMul_2"
  op: "MatMul"
  input: "lstm_1/strided_slice_13"
  input: "lstm_1/strided_slice_2"
  attr {
    key: "T"
    value {
      type: DT_FLOAT
    }
  }
  attr {
    key: "transpose_a"
    value {
      b: false
    }
  }
  attr {
    key: "transpose_b"
    value {
      b: false
    }
  }
}
node {
  name: "lstm_1/MatMul_3"
  op: "MatMul"
  input: "lstm_1/strided_slice_13"
  input: "lstm_1/strided_slice_3"
  attr {
    key: "T"
    value {
      type: DT_FLOAT
    }
  }
  attr {
    key: "transpose_a"
    value {
      b: false
    }
  }
  attr {
    key: "transpose_b"
    value {
      b: false
    }
  }
}
node {
  name: "lstm_1/BiasAdd"
  op: "BiasAdd"
  input: "lstm_1/MatMul"
  input: "lstm_1/strided_slice_8"
  attr {
    key: "T"
    value {
      type: DT_FLOAT
    }
  }
  attr {
    key: "data_format"
    value {
      s: "NHWC"
    }
  }
}
node {
  name: "lstm_1/BiasAdd_1"
  op: "BiasAdd"
  input: "lstm_1/MatMul_1"
  input: "lstm_1/strided_slice_9"
  attr {
    key: "T"
    value {
      type: DT_FLOAT
    }
  }
  attr {
    key: "data_format"
    value {
      s: "NHWC"
    }
  }
}
node {
  name: "lstm_1/BiasAdd_2"
  op: "BiasAdd"
  input: "lstm_1/MatMul_2"
  input: "lstm_1/strided_slice_10"
  attr {
    key: "T"
    value {
      type: DT_FLOAT
    }
  }
  attr {
    key: "data_format"
    value {
      s: "NHWC"
    }
  }
}
node {
  name: "lstm_1/BiasAdd_3"
  op: "BiasAdd"
  input: "lstm_1/MatMul_3"
  input: "lstm_1/strided_slice_11"
  attr {
    key: "T"
    value {
      type: DT_FLOAT
    }
  }
  attr {
    key: "data_format"
    value {
      s: "NHWC"
    }
  }
}
node {
  name: "lstm_1/MatMul_4"
  op: "MatMul"
  input: "lstm_1/Tile"
  input: "lstm_1/strided_slice_4"
  attr {
    key: "T"
    value {
      type: DT_FLOAT
    }
  }
  attr {
    key: "transpose_a"
    value {
      b: false
    }
  }
  attr {
    key: "transpose_b"
    value {
      b: false
    }
  }
}
node {
  name: "lstm_1/add"
  op: "Add"
  input: "lstm_1/BiasAdd"
  input: "lstm_1/MatMul_4"
  attr {
    key: "T"
    value {
      type: DT_FLOAT
    }
  }
}
node {
  name: "lstm_1/mul/x"
  op: "Const"
  attr {
    key: "dtype"
    value {
      type: DT_FLOAT
    }
  }
  attr {
    key: "value"
    value {
      tensor {
        dtype: DT_FLOAT
        tensor_shape {
        }
        float_val: 0.2
      }
    }
  }
}
node {
  name: "lstm_1/mul"
  op: "Mul"
  input: "lstm_1/mul/x"
  input: "lstm_1/add"
  attr {
    key: "T"
    value {
      type: DT_FLOAT
    }
  }
}
node {
  name: "lstm_1/add_1/y"
  op: "Const"
  attr {
    key: "dtype"
    value {
      type: DT_FLOAT
    }
  }
  attr {
    key: "value"
    value {
      tensor {
        dtype: DT_FLOAT
        tensor_shape {
        }
        float_val: 0.5
      }
    }
  }
}
node {
  name: "lstm_1/add_1"
  op: "Add"
  input: "lstm_1/mul"
  input: "lstm_1/add_1/y"
  attr {
    key: "T"
    value {
      type: DT_FLOAT
    }
  }
}
node {
  name: "lstm_1/Const_3"
  op: "Const"
  attr {
    key: "dtype"
    value {
      type: DT_FLOAT
    }
  }
  attr {
    key: "value"
    value {
      tensor {
        dtype: DT_FLOAT
        tensor_shape {
        }
        float_val: 0.0
      }
    }
  }
}
node {
  name: "lstm_1/Const_4"
  op: "Const"
  attr {
    key: "dtype"
    value {
      type: DT_FLOAT
    }
  }
  attr {
    key: "value"
    value {
      tensor {
        dtype: DT_FLOAT
        tensor_shape {
        }
        float_val: 1.0
      }
    }
  }
}
node {
  name: "lstm_1/clip_by_value"
  op: "ClipByValue"
  input: "lstm_1/add_1"
  input: "lstm_1/Const_3"
  input: "lstm_1/Const_4"
  attr {
    key: "T"
    value {
      type: DT_FLOAT
    }
  }
}
node {
  name: "lstm_1/MatMul_5"
  op: "MatMul"
  input: "lstm_1/Tile"
  input: "lstm_1/strided_slice_5"
  attr {
    key: "T"
    value {
      type: DT_FLOAT
    }
  }
  attr {
    key: "transpose_a"
    value {
      b: false
    }
  }
  attr {
    key: "transpose_b"
    value {
      b: false
    }
  }
}
node {
  name: "lstm_1/add_2"
  op: "Add"
  input: "lstm_1/BiasAdd_1"
  input: "lstm_1/MatMul_5"
  attr {
    key: "T"
    value {
      type: DT_FLOAT
    }
  }
}
node {
  name: "lstm_1/mul_1/x"
  op: "Const"
  attr {
    key: "dtype"
    value {
      type: DT_FLOAT
    }
  }
  attr {
    key: "value"
    value {
      tensor {
        dtype: DT_FLOAT
        tensor_shape {
        }
        float_val: 0.2
      }
    }
  }
}
node {
  name: "lstm_1/mul_1"
  op: "Mul"
  input: "lstm_1/mul_1/x"
  input: "lstm_1/add_2"
  attr {
    key: "T"
    value {
      type: DT_FLOAT
    }
  }
}
node {
  name: "lstm_1/add_3/y"
  op: "Const"
  attr {
    key: "dtype"
    value {
      type: DT_FLOAT
    }
  }
  attr {
    key: "value"
    value {
      tensor {
        dtype: DT_FLOAT
        tensor_shape {
        }
        float_val: 0.5
      }
    }
  }
}
node {
  name: "lstm_1/add_3"
  op: "Add"
  input: "lstm_1/mul_1"
  input: "lstm_1/add_3/y"
  attr {
    key: "T"
    value {
      type: DT_FLOAT
    }
  }
}
node {
  name: "lstm_1/Const_5"
  op: "Const"
  attr {
    key: "dtype"
    value {
      type: DT_FLOAT
    }
  }
  attr {
    key: "value"
    value {
      tensor {
        dtype: DT_FLOAT
        tensor_shape {
        }
        float_val: 0.0
      }
    }
  }
}
node {
  name: "lstm_1/Const_6"
  op: "Const"
  attr {
    key: "dtype"
    value {
      type: DT_FLOAT
    }
  }
  attr {
    key: "value"
    value {
      tensor {
        dtype: DT_FLOAT
        tensor_shape {
        }
        float_val: 1.0
      }
    }
  }
}
node {
  name: "lstm_1/clip_by_value_1"
  op: "ClipByValue"
  input: "lstm_1/add_3"
  input: "lstm_1/Const_5"
  input: "lstm_1/Const_6"
  attr {
    key: "T"
    value {
      type: DT_FLOAT
    }
  }
}
node {
  name: "lstm_1/mul_2"
  op: "Mul"
  input: "lstm_1/clip_by_value_1"
  input: "lstm_1/Tile_1"
  attr {
    key: "T"
    value {
      type: DT_FLOAT
    }
  }
}
node {
  name: "lstm_1/MatMul_6"
  op: "MatMul"
  input: "lstm_1/Tile"
  input: "lstm_1/strided_slice_6"
  attr {
    key: "T"
    value {
      type: DT_FLOAT
    }
  }
  attr {
    key: "transpose_a"
    value {
      b: false
    }
  }
  attr {
    key: "transpose_b"
    value {
      b: false
    }
  }
}
node {
  name: "lstm_1/add_4"
  op: "Add"
  input: "lstm_1/BiasAdd_2"
  input: "lstm_1/MatMul_6"
  attr {
    key: "T"
    value {
      type: DT_FLOAT
    }
  }
}
node {
  name: "lstm_1/Tanh"
  op: "Tanh"
  input: "lstm_1/add_4"
  attr {
    key: "T"
    value {
      type: DT_FLOAT
    }
  }
}
node {
  name: "lstm_1/mul_3"
  op: "Mul"
  input: "lstm_1/clip_by_value"
  input: "lstm_1/Tanh"
  attr {
    key: "T"
    value {
      type: DT_FLOAT
    }
  }
}
node {
  name: "lstm_1/add_5"
  op: "Add"
  input: "lstm_1/mul_2"
  input: "lstm_1/mul_3"
  attr {
    key: "T"
    value {
      type: DT_FLOAT
    }
  }
}
node {
  name: "lstm_1/MatMul_7"
  op: "MatMul"
  input: "lstm_1/Tile"
  input: "lstm_1/strided_slice_7"
  attr {
    key: "T"
    value {
      type: DT_FLOAT
    }
  }
  attr {
    key: "transpose_a"
    value {
      b: false
    }
  }
  attr {
    key: "transpose_b"
    value {
      b: false
    }
  }
}
node {
  name: "lstm_1/add_6"
  op: "Add"
  input: "lstm_1/BiasAdd_3"
  input: "lstm_1/MatMul_7"
  attr {
    key: "T"
    value {
      type: DT_FLOAT
    }
  }
}
node {
  name: "lstm_1/mul_4/x"
  op: "Const"
  attr {
    key: "dtype"
    value {
      type: DT_FLOAT
    }
  }
  attr {
    key: "value"
    value {
      tensor {
        dtype: DT_FLOAT
        tensor_shape {
        }
        float_val: 0.2
      }
    }
  }
}
node {
  name: "lstm_1/mul_4"
  op: "Mul"
  input: "lstm_1/mul_4/x"
  input: "lstm_1/add_6"
  attr {
    key: "T"
    value {
      type: DT_FLOAT
    }
  }
}
node {
  name: "lstm_1/add_7/y"
  op: "Const"
  attr {
    key: "dtype"
    value {
      type: DT_FLOAT
    }
  }
  attr {
    key: "value"
    value {
      tensor {
        dtype: DT_FLOAT
        tensor_shape {
        }
        float_val: 0.5
      }
    }
  }
}
node {
  name: "lstm_1/add_7"
  op: "Add"
  input: "lstm_1/mul_4"
  input: "lstm_1/add_7/y"
  attr {
    key: "T"
    value {
      type: DT_FLOAT
    }
  }
}
node {
  name: "lstm_1/Const_7"
  op: "Const"
  attr {
    key: "dtype"
    value {
      type: DT_FLOAT
    }
  }
  attr {
    key: "value"
    value {
      tensor {
        dtype: DT_FLOAT
        tensor_shape {
        }
        float_val: 0.0
      }
    }
  }
}
node {
  name: "lstm_1/Const_8"
  op: "Const"
  attr {
    key: "dtype"
    value {
      type: DT_FLOAT
    }
  }
  attr {
    key: "value"
    value {
      tensor {
        dtype: DT_FLOAT
        tensor_shape {
        }
        float_val: 1.0
      }
    }
  }
}
node {
  name: "lstm_1/clip_by_value_2"
  op: "ClipByValue"
  input: "lstm_1/add_7"
  input: "lstm_1/Const_7"
  input: "lstm_1/Const_8"
  attr {
    key: "T"
    value {
      type: DT_FLOAT
    }
  }
}
node {
  name: "lstm_1/Tanh_1"
  op: "Tanh"
  input: "lstm_1/add_5"
  attr {
    key: "T"
    value {
      type: DT_FLOAT
    }
  }
}
node {
  name: "lstm_1/mul_5"
  op: "Mul"
  input: "lstm_1/clip_by_value_2"
  input: "lstm_1/Tanh_1"
  attr {
    key: "T"
    value {
      type: DT_FLOAT
    }
  }
}
node {
  name: "lstm_1/TensorArray"
  op: "TensorArrayV3"
  input: "lstm_1/strided_slice_12"
  attr {
    key: "clear_after_read"
    value {
      b: true
    }
  }
  attr {
    key: "dtype"
    value {
      type: DT_FLOAT
    }
  }
  attr {
    key: "dynamic_size"
    value {
      b: false
    }
  }
  attr {
    key: "element_shape"
    value {
      shape {
        unknown_rank: true
      }
    }
  }
  attr {
    key: "identical_element_shapes"
    value {
      b: true
    }
  }
  attr {
    key: "tensor_array_name"
    value {
      s: "output_ta"
    }
  }
}
node {
  name: "lstm_1/TensorArray_1"
  op: "TensorArrayV3"
  input: "lstm_1/strided_slice_12"
  attr {
    key: "clear_after_read"
    value {
      b: true
    }
  }
  attr {
    key: "dtype"
    value {
      type: DT_FLOAT
    }
  }
  attr {
    key: "dynamic_size"
    value {
      b: false
    }
  }
  attr {
    key: "element_shape"
    value {
      shape {
        unknown_rank: true
      }
    }
  }
  attr {
    key: "identical_element_shapes"
    value {
      b: true
    }
  }
  attr {
    key: "tensor_array_name"
    value {
      s: "input_ta"
    }
  }
}
node {
  name: "lstm_1/TensorArrayUnstack/Shape"
  op: "Shape"
  input: "lstm_1/transpose"
  attr {
    key: "T"
    value {
      type: DT_FLOAT
    }
  }
  attr {
    key: "out_type"
    value {
      type: DT_INT32
    }
  }
}
node {
  name: "lstm_1/TensorArrayUnstack/strided_slice/stack"
  op: "Const"
  attr {
    key: "dtype"
    value {
      type: DT_INT32
    }
  }
  attr {
    key: "value"
    value {
      tensor {
        dtype: DT_INT32
        tensor_shape {
          dim {
            size: 1
          }
        }
        int_val: 0
      }
    }
  }
}
node {
  name: "lstm_1/TensorArrayUnstack/strided_slice/stack_1"
  op: "Const"
  attr {
    key: "dtype"
    value {
      type: DT_INT32
    }
  }
  attr {
    key: "value"
    value {
      tensor {
        dtype: DT_INT32
        tensor_shape {
          dim {
            size: 1
          }
        }
        int_val: 1
      }
    }
  }
}
node {
  name: "lstm_1/TensorArrayUnstack/strided_slice/stack_2"
  op: "Const"
  attr {
    key: "dtype"
    value {
      type: DT_INT32
    }
  }
  attr {
    key: "value"
    value {
      tensor {
        dtype: DT_INT32
        tensor_shape {
          dim {
            size: 1
          }
        }
        int_val: 1
      }
    }
  }
}
node {
  name: "lstm_1/TensorArrayUnstack/strided_slice"
  op: "StridedSlice"
  input: "lstm_1/TensorArrayUnstack/Shape"
  input: "lstm_1/TensorArrayUnstack/strided_slice/stack"
  input: "lstm_1/TensorArrayUnstack/strided_slice/stack_1"
  input: "lstm_1/TensorArrayUnstack/strided_slice/stack_2"
  attr {
    key: "Index"
    value {
      type: DT_INT32
    }
  }
  attr {
    key: "T"
    value {
      type: DT_INT32
    }
  }
  attr {
    key: "begin_mask"
    value {
      i: 0
    }
  }
  attr {
    key: "ellipsis_mask"
    value {
      i: 0
    }
  }
  attr {
    key: "end_mask"
    value {
      i: 0
    }
  }
  attr {
    key: "new_axis_mask"
    value {
      i: 0
    }
  }
  attr {
    key: "shrink_axis_mask"
    value {
      i: 1
    }
  }
}
node {
  name: "lstm_1/TensorArrayUnstack/range/start"
  op: "Const"
  attr {
    key: "dtype"
    value {
      type: DT_INT32
    }
  }
  attr {
    key: "value"
    value {
      tensor {
        dtype: DT_INT32
        tensor_shape {
        }
        int_val: 0
      }
    }
  }
}
node {
  name: "lstm_1/TensorArrayUnstack/range/delta"
  op: "Const"
  attr {
    key: "dtype"
    value {
      type: DT_INT32
    }
  }
  attr {
    key: "value"
    value {
      tensor {
        dtype: DT_INT32
        tensor_shape {
        }
        int_val: 1
      }
    }
  }
}
node {
  name: "lstm_1/TensorArrayUnstack/range"
  op: "Range"
  input: "lstm_1/TensorArrayUnstack/range/start"
  input: "lstm_1/TensorArrayUnstack/strided_slice"
  input: "lstm_1/TensorArrayUnstack/range/delta"
  attr {
    key: "Tidx"
    value {
      type: DT_INT32
    }
  }
}
node {
  name: "lstm_1/TensorArrayUnstack/TensorArrayScatter/TensorArrayScatterV3"
  op: "TensorArrayScatterV3"
  input: "lstm_1/TensorArray_1"
  input: "lstm_1/TensorArrayUnstack/range"
  input: "lstm_1/transpose"
  input: "lstm_1/TensorArray_1:1"
  attr {
    key: "T"
    value {
      type: DT_FLOAT
    }
  }
  attr {
    key: "_class"
    value {
      list {
        s: "loc:@lstm_1/transpose"
      }
    }
  }
}
node {
  name: "lstm_1/time"
  op: "Const"
  attr {
    key: "dtype"
    value {
      type: DT_INT32
    }
  }
  attr {
    key: "value"
    value {
      tensor {
        dtype: DT_INT32
        tensor_shape {
        }
        int_val: 0
      }
    }
  }
}
node {
  name: "lstm_1/while/maximum_iterations"
  op: "Const"
  attr {
    key: "dtype"
    value {
      type: DT_INT32
    }
  }
  attr {
    key: "value"
    value {
      tensor {
        dtype: DT_INT32
        tensor_shape {
        }
        int_val: 100
      }
    }
  }
}
node {
  name: "lstm_1/while/iteration_counter"
  op: "Const"
  attr {
    key: "dtype"
    value {
      type: DT_INT32
    }
  }
  attr {
    key: "value"
    value {
      tensor {
        dtype: DT_INT32
